.	-2.2254
<s>	0
</s>	0
<unk>	0
▁a	-3.84508
▁tom	-3.86061
▁i	-3.98312
'	-3.99889
?	-4.09309
▁the	-4.19017
▁to	-4.23919
s	-4.32273
▁you	-4.38038
▁de	-4.39254
▁no	-4.47183
▁que	-4.48631
▁la	-4.63315
t	-4.73423
▁¿	-4.78711
▁el	-4.80285
▁me	-4.84939
▁is	-4.84946
,	-4.8834
▁he	-4.98327
▁en	-4.99177
▁es	-5.0462
▁un	-5.18953
▁it	-5.29048
▁in	-5.34619
▁	-5.37972
▁mary	-5.3823
▁of	-5.42938
▁that	-5.43305
▁se	-5.48699
▁was	-5.52419
n	-5.54012
▁él	-5.59065
▁do	-5.61824
▁lo	-5.63202
▁have	-5.67679
▁una	-5.68093
▁this	-5.68159
▁my	-5.69935
▁por	-5.72835
▁for	-5.80136
▁she	-5.82487
▁we	-5.82608
▁what	-5.86036
▁su	-5.88799
▁mi	-5.92828
▁con	-5.94636
▁los	-5.94803
▁don	-5.95187
▁can	-5.9545
▁está	-5.97292
▁are	-5.99234
▁be	-6.00608
▁le	-6.01251
▁ella	-6.02475
▁his	-6.03279
m	-6.0562
▁did	-6.07961
▁your	-6.08151
▁on	-6.1182
▁want	-6.16135
▁para	-6.16311
▁with	-6.16587
▁al	-6.18434
▁has	-6.19139
▁and	-6.23866
▁not	-6.25227
▁y	-6.25658
▁te	-6.26137
▁like	-6.26768
▁know	-6.29921
▁más	-6.30516
▁las	-6.30752
▁at	-6.38046
▁him	-6.39139
▁there	-6.46804
▁go	-6.47669
re	-6.49391
▁they	-6.49567
▁tu	-6.50919
d	-6.5175
▁yo	-6.53759
▁her	-6.53847
ll	-6.54623
▁qué	-6.56633
ó	-6.60143
▁will	-6.63504
▁time	-6.66668
▁estoy	-6.67017
▁how	-6.6862
▁muy	-6.68838
ed	-6.7013
▁very	-6.71469
▁esta	-6.71508
▁had	-6.71793
▁eso	-6.72903
▁este	-6.73454
▁tiene	-6.73477
ve	-6.74591
▁all	-6.77341
▁del	-6.78459
▁here	-6.78999
▁estaba	-6.79293
▁up	-6.79634
▁about	-6.80181
a	-6.816
▁quiero	-6.82148
▁si	-6.83323
▁think	-6.83343
qué	-6.83465
▁tengo	-6.84505
!	-6.85083
▁fue	-6.85131
▁casa	-6.86499
▁aquí	-6.87369
▁get	-6.89473
▁out	-6.90157
▁when	-6.90397
▁as	-6.91702
▁hacer	-6.92133
▁from	-6.93572
▁como	-6.9428
ing	-6.94331
te	-6.94397
▁if	-6.96381
▁were	-6.9889
▁one	-6.99568
▁who	-6.9964
▁son	-6.9971
▁come	-7.0144
▁ha	-7.01792
▁an	-7.04714
▁todo	-7.05262
▁could	-7.05672
▁algo	-7.05801
▁esto	-7.06906
▁doesn	-7.07482
▁going	-7.07885
▁would	-7.08016
▁by	-7.08916
▁tiempo	-7.09225
▁gusta	-7.11437
▁see	-7.11814
▁why	-7.12189
o	-7.13397
▁good	-7.13771
▁favor	-7.14217
▁tan	-7.17394
▁please	-7.18732
▁ir	-7.19041
▁should	-7.19216
▁nada	-7.20492
▁so	-7.20637
▁just	-7.21342
▁todos	-7.21686
▁been	-7.21785
▁era	-7.21925
▁puedo	-7.2199
▁need	-7.22076
▁hay	-7.22148
▁where	-7.22243
▁let	-7.23434
▁cuando	-7.2412
▁boston	-7.24266
▁tell	-7.24974
▁vez	-7.2538
▁bien	-7.27261
▁mucho	-7.27502
▁help	-7.29876
▁more	-7.3004
mos	-7.31113
▁puede	-7.31489
▁but	-7.33059
▁now	-7.33734
▁than	-7.3423
▁never	-7.35994
▁ellos	-7.36395
por	-7.3676
▁ser	-7.3686
es	-7.36928
▁us	-7.37027
▁car	-7.37466
▁some	-7.38579
▁sé	-7.38606
▁solo	-7.39393
▁something	-7.39711
me	-7.39756
▁got	-7.40382
▁take	-7.41194
▁too	-7.41238
▁nunca	-7.41803
▁mañana	-7.41981
▁day	-7.43105
▁much	-7.43787
▁am	-7.44365
▁last	-7.44426
▁trabajo	-7.44746
▁¡	-7.45838
▁creo	-7.47035
▁money	-7.4759
▁home	-7.49372
▁ahora	-7.50623
▁work	-7.50669
▁dijo	-7.50717
▁dinero	-7.51001
▁people	-7.51291
▁hablar	-7.51959
▁sus	-7.52497
▁dos	-7.53649
▁ya	-7.54171
▁había	-7.54842
é	-7.55881
▁pero	-7.55959
▁tomás	-7.56845
▁back	-7.57371
▁día	-7.61145
▁soy	-7.61635
▁our	-7.6287
▁siempre	-7.63407
▁hace	-7.63472
▁house	-7.63521
▁really	-7.64066
▁nos	-7.64387
▁ese	-7.64464
▁book	-7.64493
▁went	-7.64631
▁many	-7.64751
▁said	-7.65052
▁están	-7.65479
▁libro	-7.6567
▁told	-7.65944
▁must	-7.6628
▁o	-7.66312
▁give	-7.67316
▁any	-7.68408
▁poco	-7.68672
▁anything	-7.69128
▁haber	-7.69671
▁lot	-7.69871
▁man	-7.69933
▁hoy	-7.70247
▁say	-7.70561
▁quiere	-7.71236
▁today	-7.7126
▁make	-7.71497
▁does	-7.71606
▁eat	-7.71719
▁new	-7.71927
▁thought	-7.71989
▁school	-7.7218
▁voy	-7.723
▁room	-7.7248
▁va	-7.7347
▁nadie	-7.73499
▁ver	-7.73543
▁only	-7.73587
▁french	-7.73617
▁mejor	-7.74052
▁two	-7.74346
▁esa	-7.7553
▁always	-7.75693
▁made	-7.75711
▁años	-7.75889
ly	-7.77011
no	-7.77056
▁tú	-7.77117
ta	-7.77276
▁speak	-7.77435
▁estar	-7.7744
▁right	-7.77689
▁father	-7.77939
se	-7.78144
▁long	-7.78318
e	-7.78441
▁tarde	-7.78446
▁sabe	-7.78603
▁francés	-7.79465
▁demasiado	-7.79593
▁john	-7.79593
▁idea	-7.79724
▁maría	-7.80109
▁padre	-7.80249
▁quería	-7.80408
▁"	-7.81738
▁tenía	-7.82943
▁three	-7.83118
▁every	-7.83537
▁love	-7.83739
▁parece	-7.83942
▁may	-7.83969
▁old	-7.84182
▁hizo	-7.84323
▁antes	-7.85082
▁tienes	-7.85967
▁tres	-7.87307
▁mis	-7.87488
▁estás	-7.87555
▁night	-7.87744
▁well	-7.87747
▁debería	-7.88447
▁still	-7.89144
▁off	-7.89451
▁look	-7.89772
▁wanted	-7.89962
▁noche	-7.91504
-	-7.91572
▁tomorrow	-7.91717
▁talk	-7.92428
▁won	-7.92589
▁before	-7.9259
▁asked	-7.9327
dónde	-7.93286
▁hora	-7.93518
▁over	-7.94918
r	-7.95291
▁put	-7.95579
▁left	-7.95857
▁sin	-7.96027
▁usted	-7.96435
▁dog	-7.96764
▁way	-7.96895
▁eres	-7.97003
▁sobre	-7.97685
▁leave	-7.97803
▁or	-7.97958
▁little	-7.99078
▁nothing	-7.99705
▁ti	-7.99778
▁uno	-7.99942
▁job	-8.00195
▁verdad	-8.00338
▁mí	-8.00381
▁saw	-8.00971
▁ayer	-8.00974
▁hombre	-8.01121
▁perro	-8.01122
▁again	-8.01272
▁yesterday	-8.01603
y	-8.01856
▁comer	-8.01881
▁after	-8.01923
▁estado	-8.02059
cómo	-8.022
▁live	-8.0223
▁into	-8.03151
▁puedes	-8.03607
▁down	-8.03871
▁years	-8.03957
▁better	-8.04523
▁debe	-8.04984
▁vida	-8.05666
▁english	-8.06014
▁everything	-8.0635
▁alguna	-8.0659
quién	-8.06713
▁find	-8.06763
▁nuevo	-8.06764
▁mother	-8.06855
▁buy	-8.07205
▁necesito	-8.07535
▁stay	-8.07821
▁inglés	-8.08042
le	-8.08123
▁read	-8.0886
▁came	-8.09744
▁happy	-8.09934
▁días	-8.09935
do	-8.10213
▁play	-8.11051
▁first	-8.11687
▁coche	-8.12748
▁decir	-8.12879
ok	-8.13501
▁todavía	-8.13698
▁next	-8.13832
▁gente	-8.13832
▁mismo	-8.1458
▁hecho	-8.14585
▁nosotros	-8.15105
▁tenemos	-8.15494
▁problema	-8.15583
▁life	-8.15653
▁believe	-8.16019
▁understand	-8.16151
▁other	-8.16628
▁así	-8.17291
▁ask	-8.17568
▁children	-8.17701
▁hard	-8.19004
▁madre	-8.19246
cuál	-8.193
▁them	-8.19402
▁gustaría	-8.19413
▁alguien	-8.19847
▁pensé	-8.20184
▁semana	-8.20245
▁these	-8.21518
▁stop	-8.22047
▁call	-8.22142
▁keep	-8.22222
▁plan	-8.22459
mente	-8.22898
▁morning	-8.22903
▁wants	-8.23609
▁bought	-8.23699
▁friends	-8.23707
▁problem	-8.24268
▁sabía	-8.24395
▁name	-8.2506
▁door	-8.25156
▁otra	-8.25659
▁habitación	-8.25712
▁feel	-8.25773
on	-8.25853
▁used	-8.25912
▁quieres	-8.26356
▁buen	-8.2651
▁pasado	-8.26543
▁puerta	-8.26732
▁doing	-8.26813
▁estamos	-8.26842
▁their	-8.26854
▁ever	-8.27731
▁escuela	-8.28184
▁deberías	-8.28421
gún	-8.28602
▁away	-8.28871
▁después	-8.29232
lo	-8.2941
▁friend	-8.29817
cuánto	-8.30022
▁dónde	-8.30132
▁podría	-8.30582
▁gave	-8.30945
▁casi	-8.31363
▁soon	-8.31648
▁cosas	-8.31717
▁doctor	-8.31926
▁mundo	-8.32011
▁quién	-8.32192
▁late	-8.32652
▁1	-8.32809
▁amigos	-8.33363
▁sure	-8.33422
▁happened	-8.33619
▁remember	-8.35206
▁feliz	-8.35319
▁fuera	-8.35909
▁bus	-8.36578
▁difícil	-8.36827
▁niños	-8.36987
▁saber	-8.3716
▁ayuda	-8.37569
▁lost	-8.3766
▁año	-8.37807
▁allí	-8.37859
▁hacerlo	-8.37917
▁veces	-8.38039
▁year	-8.38402
▁already	-8.385
cuándo	-8.38714
▁cómo	-8.38908
▁tus	-8.39063
▁sea	-8.39085
▁pronto	-8.39429
▁enough	-8.40132
▁auto	-8.40194
▁alone	-8.40612
▁show	-8.40683
▁water	-8.40743
▁week	-8.40747
▁niño	-8.40979
▁otro	-8.40981
▁teacher	-8.40993
▁boy	-8.41225
▁turn	-8.41378
▁heard	-8.41476
▁married	-8.41791
▁seguro	-8.42207
á	-8.42241
▁ni	-8.42344
▁best	-8.42881
▁menos	-8.43054
▁agua	-8.43227
ble	-8.43433
▁without	-8.43485
."	-8.43664
▁bad	-8.43685
▁dio	-8.43703
▁wrong	-8.43721
▁comprar	-8.43755
▁even	-8.4395
▁desde	-8.44227
▁busy	-8.44245
▁beautiful	-8.44454
cause	-8.44702
▁mal	-8.44895
▁amigo	-8.44896
▁buena	-8.4504
▁muchos	-8.45431
▁try	-8.45597
▁realmente	-8.45735
que	-8.45841
▁bed	-8.45964
▁often	-8.45967
▁hear	-8.46137
▁visto	-8.46688
▁found	-8.46809
▁looking	-8.47132
▁things	-8.47182
▁cold	-8.475
▁comida	-8.47704
▁wait	-8.47727
▁vi	-8.47979
▁same	-8.48207
▁party	-8.48474
▁conmigo	-8.48972
▁nuestro	-8.48976
▁ciudad	-8.48977
▁done	-8.49162
▁ahí	-8.49231
▁habla	-8.49244
▁thing	-8.49498
0	-8.50374
▁vino	-8.50842
de	-8.51362
▁seen	-8.51444
▁nombre	-8.51619
▁food	-8.51633
cada	-8.51686
▁persona	-8.51765
▁sólo	-8.51838
▁brother	-8.52148
puedo	-8.52154
▁train	-8.5233
▁podía	-8.52633
▁ten	-8.52743
▁big	-8.52897
▁looks	-8.52909
▁use	-8.53153
▁everyone	-8.53168
▁knew	-8.53703
▁gran	-8.53704
▁person	-8.53836
▁todas	-8.54239
▁personas	-8.54767
▁answer	-8.5493
▁hermano	-8.55144
▁fiesta	-8.55169
▁café	-8.55332
▁tener	-8.55436
▁vas	-8.55477
▁hope	-8.5583
▁hotel	-8.5609
▁tren	-8.56091
▁tired	-8.56166
▁open	-8.56705
▁coffee	-8.56709
▁dice	-8.56997
▁toda	-8.57184
▁knows	-8.57239
▁wish	-8.57761
▁true	-8.57846
▁being	-8.58201
en	-8.58245
▁australia	-8.58317
▁contigo	-8.58387
▁haciendo	-8.58672
▁watch	-8.59527
▁drink	-8.59614
▁letter	-8.59676
▁carta	-8.59802
▁while	-8.59809
▁learn	-8.59881
▁likes	-8.5989
▁around	-8.60094
▁someone	-8.60098
tuvo	-8.602
▁suficiente	-8.60275
▁lugar	-8.60382
▁les	-8.61409
▁japan	-8.61537
▁profesor	-8.6192
▁tanto	-8.62048
▁which	-8.62123
▁japón	-8.62417
▁girl	-8.62613
▁yet	-8.6301
▁once	-8.63049
▁clase	-8.63204
▁hospital	-8.63229
▁cama	-8.63909
▁acerca	-8.64048
▁salir	-8.64497
▁policía	-8.64713
▁leer	-8.64834
▁world	-8.65701
▁sleep	-8.65817
is	-8.66201
▁cuenta	-8.66259
▁few	-8.6631
▁pay	-8.66463
▁grande	-8.66582
▁bueno	-8.66683
▁mind	-8.66931
▁books	-8.66946
▁muchas	-8.67065
▁nuestra	-8.67182
▁libros	-8.67369
▁died	-8.68003
▁momento	-8.68201
most	-8.68212
▁kind	-8.68707
▁study	-8.69003
▁own	-8.69011
▁place	-8.69186
▁days	-8.69514
▁write	-8.69698
▁most	-8.69907
▁diez	-8.70361
▁care	-8.70497
▁those	-8.70678
▁truth	-8.70678
▁young	-8.70742
ndo	-8.70758
ther	-8.71127
▁sister	-8.71325
▁walk	-8.71761
▁another	-8.71963
▁talking	-8.7217
▁cerca	-8.72228
▁siento	-8.7229
▁each	-8.72611
▁hermana	-8.72631
▁pasó	-8.72653
▁rápido	-8.7294
▁parents	-8.73286
▁happen	-8.73408
▁lunch	-8.73589
▁tv	-8.73592
▁seems	-8.73634
estás	-8.73697
▁family	-8.7392
▁espero	-8.73967
▁teléfono	-8.7425
▁looked	-8.7453
▁getting	-8.74619
▁lunes	-8.74914
▁anyone	-8.74916
▁problemas	-8.7493
▁hijo	-8.74963
ando	-8.75404
▁vive	-8.75408
▁great	-8.75585
os	-8.76161
▁padres	-8.76221
▁afraid	-8.76253
▁tried	-8.76254
▁early	-8.76258
▁familia	-8.76389
▁pudo	-8.76595
▁monday	-8.76682
▁historia	-8.76771
▁sido	-8.77143
▁anoche	-8.77292
▁both	-8.7755
▁dejó	-8.77636
▁aún	-8.7768
▁mujer	-8.77889
▁ago	-8.77932
until	-8.78044
▁hate	-8.78054
▁vamos	-8.78164
▁fui	-8.78225
▁mine	-8.78515
tienes	-8.78744
▁trabajar	-8.78824
▁rain	-8.78862
▁duran	-8.7894
▁también	-8.79342
▁puso	-8.79345
▁vivir	-8.79529
▁tienen	-8.79624
▁difficult	-8.79648
▁jugar	-8.79677
▁acuerdo	-8.79689
▁together	-8.79694
▁joven	-8.79878
▁cat	-8.80122
▁nueva	-8.80129
▁cosa	-8.80512
▁horas	-8.80622
▁gustan	-8.80727
▁venir	-8.80748
▁mayor	-8.81382
▁child	-8.81444
▁dinner	-8.81801
▁murió	-8.82158
▁wife	-8.82162
l	-8.82274
▁else	-8.83049
▁country	-8.83236
▁estaban	-8.83333
▁angry	-8.83599
▁coming	-8.83983
▁since	-8.84298
▁donde	-8.84339
quieres	-8.8439
▁aprender	-8.84488
▁entre	-8.84677
▁cinco	-8.84694
▁favorite	-8.84694
▁nadar	-8.85163
▁tomar	-8.85452
▁dije	-8.85785
▁parte	-8.86084
▁dejar	-8.86087
▁han	-8.86247
▁pregunta	-8.86365
▁hurt	-8.86405
▁nobody	-8.86546
▁hice	-8.86547
puedes	-8.86551
▁encontrar	-8.86646
▁mano	-8.86659
▁accidente	-8.86806
▁haven	-8.86915
▁yourself	-8.86921
▁himself	-8.87297
▁question	-8.874
▁five	-8.87712
▁hours	-8.87756
▁meeting	-8.88
▁mesa	-8.8815
▁ocupado	-8.88294
▁wouldn	-8.88502
▁playing	-8.88635
▁pasar	-8.88936
▁hand	-8.88972
▁gato	-8.89066
▁phone	-8.89067
▁bastante	-8.89199
▁temprano	-8.89199
▁matter	-8.89457
▁might	-8.89583
▁table	-8.89605
▁viene	-8.89841
▁televisión	-8.89969
▁menudo	-8.89974
▁ayudar	-8.90023
▁piano	-8.90356
▁meet	-8.90675
▁mucha	-8.91136
▁everybody	-8.91137
▁llegar	-8.91155
▁accident	-8.91309
▁reading	-8.91348
?"	-8.9151
▁gracias	-8.91566
▁volver	-8.91717
▁estudiar	-8.91895
▁such	-8.91941
▁necesita	-8.92265
▁police	-8.92314
▁sorry	-8.9232
▁month	-8.92622
▁dormir	-8.92722
has	-8.92972
▁easy	-8.93112
▁pidió	-8.93112
▁camino	-8.93113
▁swim	-8.93113
▁sí	-8.93166
▁under	-8.93513
▁start	-8.93524
▁fácil	-8.93818
▁eating	-8.93827
▁visit	-8.93972
er	-8.93973
▁aren	-8.94202
▁japanese	-8.94321
▁d	-8.94587
▁última	-8.94626
▁says	-8.94679
▁lives	-8.94703
▁fire	-8.94991
▁lleva	-8.95103
as	-8.95346
▁nice	-8.95459
▁solía	-8.95547
▁algunos	-8.96083
▁waiting	-8.96097
▁trying	-8.96101
▁far	-8.96418
▁trouble	-8.96574
▁drive	-8.97125
▁minutos	-8.97321
▁dar	-8.97359
▁called	-8.97554
▁mientra	-8.97603
▁ve	-8.97801
▁cansado	-8.98072
▁estación	-8.98092
▁finished	-8.98131
▁started	-8.98148
▁minutes	-8.98188
▁wonder	-8.98326
▁office	-8.98407
▁park	-8.98621
▁decided	-8.98937
▁será	-8.9909
▁fuerte	-8.99255
▁dicho	-8.99288
▁sola	-8.99484
▁razón	-8.99713
▁students	-8.9975
▁podemos	-8.99812
▁estos	-8.99925
▁small	-9.00127
▁lado	-9.00372
▁miedo	-9.00572
▁thank	-9.00792
▁story	-9.01
▁ready	-9.01084
▁important	-9.01333
▁país	-9.01367
verdad	-9.0139
having	-9.01425
▁myself	-9.01433
la	-9.01857
▁station	-9.01872
▁preguntó	-9.01875
▁felt	-9.01877
▁tonight	-9.0189
▁alto	-9.02005
▁tipo	-9.02339
▁conozco	-9.02743
▁woman	-9.02744
▁ran	-9.02764
▁met	-9.0281
emos	-9.02876
▁colegio	-9.03184
▁window	-9.03224
▁arrived	-9.03252
▁error	-9.03601
▁frío	-9.03628
▁importante	-9.0372
▁shoes	-9.0375
▁importa	-9.04359
▁sick	-9.0452
▁hablando	-9.04554
▁music	-9.04904
i	-9.05035
▁red	-9.0516
▁change	-9.05335
▁radio	-9.05417
▁city	-9.05417
▁usually	-9.05429
▁ventana	-9.05487
▁vio	-9.05674
▁zapatos	-9.05925
ía	-9.05963
0.	-9.06603
▁working	-9.06771
▁pretty	-9.06781
▁hot	-9.06816
▁estuvo	-9.06901
▁música	-9.07238
▁oficina	-9.07238
▁ate	-9.07608
▁fun	-9.07782
▁película	-9.07802
▁hijos	-9.08093
▁goes	-9.08115
▁pienso	-9.08162
▁word	-9.08325
▁da	-9.08428
▁haya	-9.08439
▁anymore	-9.08627
▁llegó	-9.08643
▁ustedes	-9.08862
ar	-9.08892
▁fast	-9.09063
▁compró	-9.09094
▁cabeza	-9.09564
▁hubiera	-9.09564
▁china	-9.09567
▁fin	-9.09573
▁quisiera	-9.09585
sabes	-9.09748
▁needs	-9.09843
▁homework	-9.10036
▁town	-9.10045
▁large	-9.10112
▁deja	-9.10168
▁estudiantes	-9.10403
▁enjoy	-9.10518
▁rich	-9.10527
▁gone	-9.10592
▁tal	-9.10712
▁esperar	-9.1105
▁broke	-9.11074
▁punto	-9.11126
▁spend	-9.11134
▁reloj	-9.11394
▁christmas	-9.11464
▁mistake	-9.1171
▁bicicleta	-9.11945
▁reunión	-9.11972
▁picture	-9.12109
▁cualquier	-9.12311
▁juntos	-9.12352
▁único	-9.12428
▁tennis	-9.12428
▁fueron	-9.12488
▁seis	-9.12617
▁movie	-9.13109
▁di	-9.13149
▁contra	-9.13264
▁near	-9.13396
▁six	-9.13408
▁primera	-9.13496
▁plane	-9.13576
▁game	-9.13591
▁ojos	-9.13781
▁eyes	-9.13896
▁run	-9.14076
▁breakfast	-9.14384
▁esperando	-9.14397
▁quite	-9.14501
▁times	-9.14554
nos	-9.14571
▁language	-9.14584
▁media	-9.14598
▁edad	-9.14815
▁high	-9.14866
▁baby	-9.14879
00	-9.15108
▁nin	-9.15151
▁afternoon	-9.15377
▁ido	-9.15564
▁esposa	-9.15883
▁forget	-9.1598
hay	-9.16423
▁dream	-9.16512
▁finish	-9.16766
▁tenis	-9.16879
▁stupid	-9.16882
ba	-9.17129
▁creer	-9.17354
▁fumar	-9.17397
▁song	-9.17691
▁unidos	-9.17991
▁re	-9.18269
▁quien	-9.18423
▁queda	-9.18612
▁misma	-9.18656
▁viejo	-9.18674
▁sueño	-9.18681
▁war	-9.18778
▁río	-9.1893
▁buscando	-9.18933
▁class	-9.19278
▁hair	-9.19472
▁against	-9.19485
▁canción	-9.19602
▁advice	-9.19969
▁bring	-9.1997
▁estados	-9.19972
▁summer	-9.19974
▁conducir	-9.19977
▁debo	-9.20093
▁pasa	-9.2024
▁caja	-9.20243
▁comes	-9.20287
▁somos	-9.20448
▁guerra	-9.20493
▁river	-9.20493
▁cake	-9.20785
▁compré	-9.2102
▁interesting	-9.21032
▁ganas	-9.21061
▁present	-9.21089
▁listen	-9.21104
▁chico	-9.21322
▁haga	-9.21416
í	-9.21492
▁caught	-9.21548
▁pueda	-9.21859
▁ra	-9.21863
▁verte	-9.21944
▁escribir	-9.21996
▁bajo	-9.22577
▁fell	-9.22639
ever	-9.22909
▁verano	-9.23468
▁palabra	-9.23491
▁lived	-9.23649
▁through	-9.23693
▁began	-9.23694
▁milk	-9.23702
▁smoking	-9.23705
▁studying	-9.23854
▁close	-9.23941
▁number	-9.24029
▁kill	-9.24083
▁perder	-9.24096
▁fish	-9.24151
▁salió	-9.24239
▁face	-9.24419
▁número	-9.24581
▁parecía	-9.25337
▁along	-9.25344
▁longer	-9.2539
▁veo	-9.25446
▁oído	-9.25711
▁avión	-9.25885
▁weather	-9.25886
▁tienda	-9.26253
▁respuesta	-9.26264
▁free	-9.26296
▁pueden	-9.26419
▁cuarto	-9.26441
not	-9.26442
▁sabes	-9.26486
▁sol	-9.26561
▁cree	-9.26665
▁taxi	-9.26817
▁b	-9.27243
▁chica	-9.27397
▁llave	-9.27401
▁calle	-9.27865
▁full	-9.27953
▁lejos	-9.28127
▁sería	-9.28143
▁leche	-9.28145
▁iba	-9.28348
▁interesante	-9.28539
▁short	-9.28629
▁autobús	-9.28694
▁perdido	-9.28694
▁dólares	-9.28699
▁later	-9.28864
da	-9.28906
▁pensar	-9.29576
▁bebé	-9.29677
▁dolor	-9.29698
▁kept	-9.2984
▁navidad	-9.2984
▁médico	-9.30274
▁chance	-9.30281
▁hour	-9.30297
▁older	-9.30477
▁watching	-9.3061
▁manera	-9.30865
▁death	-9.31005
▁cierto	-9.31043
▁age	-9.31074
▁snow	-9.31218
▁usar	-9.31357
▁secret	-9.3148
▁terminar	-9.31688
▁america	-9.31725
▁box	-9.31976
▁juego	-9.32062
▁dark	-9.32161
▁quedó	-9.32257
▁mean	-9.32469
▁pelo	-9.32607
▁makes	-9.32668
▁capaz	-9.32826
▁esté	-9.32964
▁bit	-9.32968
▁mío	-9.32975
ado	-9.33106
▁sit	-9.33124
▁thinking	-9.33299
▁living	-9.3336
▁ropa	-9.3336
▁sat	-9.33434
▁light	-9.33723
▁street	-9.33861
▁vivo	-9.33863
▁cut	-9.3395
▁killed	-9.34091
▁llevar	-9.34337
▁loves	-9.34347
be	-9.34385
▁tree	-9.34482
▁encontré	-9.34595
c	-9.34869
▁pie	-9.34893
▁clean	-9.34936
▁enfermo	-9.35167
▁parque	-9.35188
▁oír	-9.3555
▁ven	-9.35759
ninguna	-9.35777
▁spoke	-9.35777
▁encanta	-9.36296
▁cámara	-9.36308
▁libre	-9.3632
▁regalo	-9.36334
▁student	-9.36336
▁entender	-9.3635
▁became	-9.36397
▁vos	-9.36426
▁surprised	-9.36466
▁sometimes	-9.36499
▁seem	-9.36567
▁hands	-9.36608
▁hija	-9.36936
▁daughter	-9.36949
▁hurry	-9.37008
▁bicycle	-9.37008
▁part	-9.37045
▁vaya	-9.3716
▁par	-9.37183
▁end	-9.37243
está	-9.37344
▁trust	-9.37516
▁camera	-9.37577
▁computer	-9.37583
▁perdió	-9.37629
▁hungry	-9.37629
▁york	-9.37637
▁white	-9.3764
▁born	-9.38261
▁die	-9.38574
▁stand	-9.38743
▁muerte	-9.38884
▁pude	-9.38884
▁stopped	-9.38889
▁estas	-9.38947
▁quit	-9.38948
▁preguntas	-9.39051
▁cara	-9.39057
▁manos	-9.39259
▁listo	-9.39336
▁forgot	-9.39515
▁company	-9.39515
▁tokyo	-9.39515
▁cuidado	-9.39521
▁luz	-9.39536
▁dollars	-9.39652
▁questions	-9.39771
▁vacaciones	-9.40153
▁real	-9.40187
▁wine	-9.40253
▁realidad	-9.40797
▁duro	-9.40902
▁miss	-9.40926
▁forma	-9.41116
▁sos	-9.41252
▁store	-9.41416
▁consejo	-9.41441
▁calor	-9.41446
▁beber	-9.41564
▁news	-9.41905
taking	-9.41935
▁tocar	-9.41941
▁hambre	-9.42088
▁pequeño	-9.42104
▁mak	-9.42106
▁primero	-9.42255
▁glad	-9.427
▁careful	-9.42705
▁spent	-9.42742
▁cuanto	-9.42751
▁hold	-9.42759
ra	-9.43025
▁lie	-9.43242
▁drunk	-9.43399
▁birthday	-9.434
▁acá	-9.434
al	-9.43417
▁ojal	-9.43417
▁dead	-9.43426
▁secreto	-9.43513
▁necesitas	-9.43742
▁posible	-9.44034
▁banco	-9.44062
▁vuelta	-9.44096
▁espera	-9.44178
▁hit	-9.44249
▁moment	-9.44576
▁falta	-9.44582
▁e	-9.44598
able	-9.44633
▁odio	-9.44729
▁pregunto	-9.44733
▁niña	-9.44774
▁culpa	-9.45024
▁queremos	-9.45027
▁10	-9.45084
▁terrible	-9.45384
▁tokio	-9.454
▁rest	-9.4541
▁volvió	-9.45442
▁extraño	-9.4545
▁viaje	-9.45458
▁whe	-9.45525
▁flores	-9.46097
▁déjame	-9.46103
▁largo	-9.46133
clock	-9.46272
▁cena	-9.4636
▁cocina	-9.46365
▁tea	-9.46519
▁saying	-9.46615
tom	-9.46625
▁equipo	-9.46761
▁llama	-9.47031
▁malo	-9.47062
▁cost	-9.47312
▁follow	-9.47319
▁behind	-9.4744
▁cumpleaños	-9.47442
▁clothes	-9.47445
▁terminado	-9.47456
▁hombres	-9.47457
▁haci	-9.47464
▁empezó	-9.47464
▁rico	-9.47521
▁become	-9.47531
▁hagas	-9.47739
▁trabaja	-9.47872
▁flowers	-9.47905
▁hiciste	-9.48129
▁cerveza	-9.4813
▁siquiera	-9.48161
▁entiendo	-9.48207
▁recuerdo	-9.48209
▁van	-9.48221
▁sing	-9.48229
▁ruido	-9.48771
▁suerte	-9.48825
▁tío	-9.48829
▁entrar	-9.49212
▁oportunidad	-9.49453
an	-9.49483
▁business	-9.49521
▁dur	-9.49522
▁té	-9.49592
▁novia	-9.49602
▁crees	-9.5008
▁cantar	-9.50125
▁japonés	-9.5023
▁justo	-9.50342
▁beer	-9.50748
▁pagar	-9.50801
▁compañía	-9.50937
▁próximo	-9.50937
ween	-9.50937
▁perros	-9.50955
▁haré	-9.50979
▁canadian	-9.51065
▁foto	-9.51076
▁piensa	-9.51419
▁touch	-9.51455
▁speaking	-9.51472
▁others	-9.51566
▁cuatro	-9.51652
▁possible	-9.51652
▁wrote	-9.5166
▁head	-9.51667
▁eaten	-9.51781
▁building	-9.51797
▁send	-9.51854
▁changed	-9.51887
▁prefer	-9.51912
▁dogs	-9.51928
▁stayed	-9.52158
▁trip	-9.52275
▁árbol	-9.52305
▁black	-9.52371
▁expensive	-9.52373
▁pensando	-9.52385
▁catch	-9.52385
▁works	-9.52438
▁wearing	-9.52448
▁lengua	-9.52526
▁estudiante	-9.52538
▁advise	-9.52549
▁os	-9.52665
▁allá	-9.52724
▁final	-9.52973
aron	-9.53025
▁uncle	-9.53096
▁nieve	-9.53101
▁jamás	-9.53105
▁paper	-9.5326
▁esperaba	-9.53438
▁helped	-9.53485
▁dress	-9.53637
▁girlfriend	-9.53826
▁vista	-9.53826
ste	-9.53978
▁team	-9.54083
▁aconsej	-9.54135
▁bet	-9.54237
▁cook	-9.54351
▁golf	-9.54549
▁outside	-9.54575
▁gets	-9.54615
▁speaks	-9.54665
▁tarea	-9.54745
▁cuánto	-9.54757
▁blame	-9.55188
▁decidió	-9.55303
▁travel	-9.55377
▁quieras	-9.55379
▁bank	-9.55468
▁four	-9.5548
▁asunto	-9.55496
▁palabras	-9.5558
▁otros	-9.556
▁anybody	-9.56048
podrías	-9.56103
▁estaré	-9.56196
▁reason	-9.56244
▁visitar	-9.56253
▁sunday	-9.56257
▁key	-9.56267
▁conoce	-9.56705
▁order	-9.56895
amos	-9.56964
▁estará	-9.57097
▁strange	-9.57477
▁color	-9.57522
▁noise	-9.57566
▁cuándo	-9.57618
▁break	-9.57669
▁pan	-9.57677
▁worked	-9.57746
▁puesto	-9.57779
▁tall	-9.57875
▁pain	-9.58018
▁heart	-9.58143
▁única	-9.58321
▁dame	-9.58423
▁necesitamos	-9.58462
▁mujeres	-9.58469
▁ice	-9.58539
▁cup	-9.58558
▁canadiense	-9.58563
▁extranjero	-9.58564
▁whole	-9.58726
▁oí	-9.58862
▁asleep	-9.5909
▁women	-9.5909
▁running	-9.5909
▁famous	-9.59092
▁examen	-9.591
▁lista	-9.59175
▁amor	-9.59189
▁point	-9.5936
▁eran	-9.59379
▁thinks	-9.59496
▁acaba	-9.5978
▁herself	-9.59865
▁último	-9.59865
▁fuego	-9.59917
▁vestido	-9.60099
▁equivocado	-9.60111
▁pequeña	-9.60122
▁needed	-9.6038
▁strong	-9.60601
▁lose	-9.60633
▁dentro	-9.60646
▁edificio	-9.60646
▁salud	-9.6072
▁debemos	-9.60954
▁biblioteca	-9.61434
▁decisión	-9.61434
▁proud	-9.61434
▁dangerous	-9.61435
▁perdí	-9.6144
▁glasses	-9.61493
▁diccionario	-9.61678
▁escuchar	-9.61712
▁sound	-9.61737
▁carne	-9.6174
▁apena	-9.62127
▁different	-9.62185
▁baseball	-9.62227
▁floor	-9.62228
▁taza	-9.62228
▁exactly	-9.62232
▁quickly	-9.62238
▁montón	-9.62263
▁caminar	-9.62284
▁restaurante	-9.62494
▁bag	-9.62525
▁popular	-9.62757
▁explain	-9.62906
▁aquel	-9.62984
▁llover	-9.62991
▁dictionary	-9.63027
▁éxito	-9.63027
▁sombrero	-9.63028
▁paid	-9.63045
▁trabajando	-9.63054
▁least	-9.63091
▁offer	-9.63106
ron	-9.63205
▁raining	-9.63244
▁quieren	-9.63352
▁fútbol	-9.63834
▁jardín	-9.63834
▁library	-9.63836
▁poder	-9.63837
▁tenido	-9.6386
▁move	-9.63897
▁air	-9.6437
▁worry	-9.64552
▁conseguir	-9.6464
▁crazy	-9.64647
▁lluvia	-9.64647
▁exactamente	-9.64659
▁interested	-9.64675
▁mala	-9.64877
▁primer	-9.65102
▁win	-9.65192
▁sale	-9.65276
▁cayó	-9.65466
▁club	-9.65469
▁restaurant	-9.65499
▁loved	-9.65565
▁agree	-9.65654
▁empezar	-9.65709
▁gatos	-9.65752
▁waited	-9.65868
▁pass	-9.6612
▁telephone	-9.66138
▁return	-9.66172
▁alrededor	-9.66223
▁safe	-9.6625
▁encontró	-9.66301
▁hide	-9.66317
▁weight	-9.66395
▁errores	-9.66415
▁decirle	-9.665
▁muerto	-9.66663
▁cats	-9.66834
▁played	-9.66861
▁poner	-9.67077
▁treinta	-9.67126
▁front	-9.67128
▁sitio	-9.67129
▁frente	-9.67136
▁sentido	-9.67144
▁thirty	-9.67185
▁problems	-9.67437
▁favorito	-9.67491
▁haría	-9.67525
▁takes	-9.67528
▁cenar	-9.67615
▁health	-9.67933
▁concert	-9.67967
▁siete	-9.67967
▁baño	-9.67971
▁blanco	-9.6835
▁tenga	-9.68382
▁sigue	-9.68501
▁mistakes	-9.68533
▁words	-9.68616
u	-9.68669
▁cry	-9.68723
▁poor	-9.68754
▁men	-9.68805
▁swimming	-9.68815
▁guitarra	-9.68821
▁pensaba	-9.68824
▁probabl	-9.68828
▁leyendo	-9.68829
▁llorar	-9.68832
▁entonces	-9.68849
▁concierto	-9.68849
"	-9.68901
▁severa	-9.68918
cuánta	-9.69184
▁abogado	-9.69213
▁result	-9.69397
▁loco	-9.69444
▁garden	-9.69549
▁guitar	-9.69661
▁béisbol	-9.69669
▁certain	-9.69669
▁umbrella	-9.69669
▁half	-9.69671
▁"¿	-9.69678
▁lucky	-9.69687
▁seven	-9.69697
▁atención	-9.69698
▁evening	-9.69997
▁camisa	-9.70068
ited	-9.70076
▁inteligente	-9.70095
ción	-9.70298
▁sal	-9.70301
▁glass	-9.70466
▁peligro	-9.70518
▁television	-9.70531
▁miró	-9.70533
▁dijiste	-9.70541
▁mira	-9.70781
▁clases	-9.70816
▁walked	-9.70854
▁dormido	-9.70947
eres	-9.71027
▁ganar	-9.71064
▁broken	-9.71241
▁paraguas	-9.714
▁somebody	-9.714
▁jugando	-9.71408
▁pasando	-9.71449
▁finally	-9.71452
▁estuve	-9.7163
▁deal	-9.71721
▁opened	-9.71785
el	-9.71863
▁mad	-9.72065
▁guess	-9.72207
▁pens	-9.72209
▁almuerzo	-9.72278
▁dirección	-9.72278
▁prefiero	-9.72278
▁estudiando	-9.7229
▁wear	-9.72302
▁pasada	-9.72305
▁side	-9.72306
▁vendrá	-9.72339
▁seemed	-9.72463
▁choice	-9.7271
▁caso	-9.7272
▁aire	-9.72834
▁road	-9.73163
▁cuesta	-9.73169
▁venga	-9.73253
▁missed	-9.73367
g	-9.73679
▁shirt	-9.7369
▁movies	-9.73729
▁expect	-9.73841
▁accept	-9.7392
▁peor	-9.73984
rought	-9.74056
▁husband	-9.74062
ate	-9.74098
cabo	-9.74129
▁dime	-9.74169
▁llamar	-9.74313
ada	-9.74345
▁talked	-9.74796
▁llamó	-9.74956
▁quizá	-9.74956
▁universidad	-9.74956
▁figure	-9.74957
▁comió	-9.74957
▁driver	-9.75033
▁haz	-9.75081
▁sad	-9.75105
▁estaría	-9.75201
▁mía	-9.75234
▁lawyer	-9.7546
▁abuelo	-9.75466
▁apple	-9.75521
▁pedí	-9.75626
▁sent	-9.75759
▁entró	-9.75872
▁deberes	-9.75895
▁feeling	-9.75904
▁animales	-9.75916
▁shut	-9.75967
▁states	-9.76061
▁learned	-9.7625
▁barco	-9.76371
▁seguir	-9.764
▁minute	-9.76443
▁realize	-9.76635
▁clear	-9.7674
▁nuestros	-9.76769
▁either	-9.76783
▁situación	-9.76783
▁siendo	-9.76806
▁sell	-9.76956
▁smoke	-9.77132
▁estúpido	-9.77313
▁rules	-9.77509
vas	-9.77526
▁thanks	-9.77682
▁rato	-9.77744
▁forward	-9.77804
▁viven	-9.77883
▁fine	-9.78098
▁hat	-9.78161
▁estabas	-9.78198
▁patient	-9.78202
▁peso	-9.78273
▁dance	-9.78464
▁danger	-9.78642
▁attention	-9.78643
▁lying	-9.78647
▁mamá	-9.7865
▁feed	-9.78685
▁meat	-9.78786
▁seeing	-9.79051
▁wall	-9.79229
▁ok	-9.79278
▁playa	-9.795
▁piensas	-9.79529
▁driving	-9.79587
▁rompió	-9.79587
▁situation	-9.79587
▁habría	-9.79589
▁completamente	-9.79591
▁crying	-9.79691
turned	-9.79743
▁digas	-9.798
▁visited	-9.7987
▁vale	-9.79891
▁boys	-9.79951
▁lago	-9.80024
▁promise	-9.80043
▁mar	-9.80069
▁case	-9.80318
▁pick	-9.80434
▁leaving	-9.80539
▁opinión	-9.80539
▁pudiera	-9.80539
▁twice	-9.80539
▁vacation	-9.8054
▁desk	-9.80546
▁finalmente	-9.80574
▁solve	-9.80593
▁paris	-9.80603
▁animals	-9.80637
▁p	-9.80647
▁drinking	-9.80852
▁llev	-9.8094
▁arm	-9.80988
▁arrive	-9.80999
▁wash	-9.81037
▁decision	-9.81084
to	-9.81094
▁hermosa	-9.81156
▁responder	-9.81241
▁normal	-9.8144
▁test	-9.81462
▁parís	-9.81501
▁winter	-9.81501
▁share	-9.81502
▁imposible	-9.81503
▁probablemente	-9.81515
▁beach	-9.81519
▁alive	-9.81549
▁trata	-9.8159
▁invited	-9.81594
▁llevaba	-9.81629
▁pen	-9.8165
▁fishing	-9.81667
▁irme	-9.81781
▁minuto	-9.82159
▁cambiar	-9.82218
▁traffic	-9.82472
▁invierno	-9.82473
▁address	-9.82479
▁terminó	-9.82479
▁ocurrió	-9.82481
▁papá	-9.82486
▁sala	-9.82566
▁sentó	-9.82616
▁lake	-9.82622
▁closed	-9.82742
▁ello	-9.82933
▁control	-9.83006
▁medio	-9.83075
▁peligroso	-9.83109
▁seat	-9.832
▁vaso	-9.83451
▁blue	-9.83452
▁cuchillo	-9.83452
▁suppose	-9.83452
▁divertido	-9.83452
▁airport	-9.83453
▁worried	-9.83453
▁ocupada	-9.83456
▁completely	-9.83466
▁grandfather	-9.83473
▁duele	-9.83475
▁ayudarte	-9.83685
rank	-9.83809
▁known	-9.8383
▁kids	-9.83987
▁pedir	-9.84019
▁mountain	-9.84141
▁resolver	-9.84156
▁causa	-9.84267
puede	-9.84278
▁boca	-9.84412
▁próxima	-9.84442
▁pieza	-9.84444
▁sleeping	-9.84748
aba	-9.8498
▁montaña	-9.85149
▁ticket	-9.85149
▁ship	-9.85161
▁pase	-9.85329
▁papel	-9.85375
▁aeropuerto	-9.85442
▁atrás	-9.85443
▁knife	-9.85445
▁carro	-9.85537
▁meses	-9.85646
▁learning	-9.85771
▁pena	-9.85792
▁second	-9.86141
▁kiss	-9.86222
▁londres	-9.86452
▁shopping	-9.86452
▁london	-9.86456
▁estábamos	-9.86472
▁per	-9.86512
▁casado	-9.86787
▁eggs	-9.86911
▁esos	-9.8703
crees	-9.87127
▁weekend	-9.87166
▁triste	-9.87177
▁abroad	-9.87473
▁kitchen	-9.87473
▁voz	-9.87473
▁writing	-9.87473
▁comido	-9.87473
▁hubo	-9.87477
▁desearía	-9.87484
▁mayoría	-9.87505
▁vayas	-9.87547
▁viajar	-9.87676
▁mantener	-9.87718
▁worth	-9.87949
▁hiciera	-9.88086
tú	-9.88098
▁guy	-9.88254
▁fight	-9.88346
▁simple	-9.88441
▁abrió	-9.88504
▁cine	-9.88504
▁intentando	-9.88514
▁venido	-9.88526
▁suele	-9.88526
▁younger	-9.88547
▁lamento	-9.88556
▁singing	-9.88643
▁promised	-9.88665
▁recordar	-9.88754
▁less	-9.89212
▁except	-9.89544
▁abrigo	-9.89545
▁empieza	-9.89545
▁wake	-9.89545
▁llegué	-9.89545
▁ambos	-9.89548
▁hiding	-9.89592
▁traje	-9.89624
▁sense	-9.89695
▁passed	-9.89699
▁though	-9.89862
ya	-9.89867
▁tie	-9.8996
▁diga	-9.9002
▁huevos	-9.90032
▁capital	-9.90131
▁excuse	-9.90289
▁partido	-9.90328
▁abrir	-9.90369
▁begin	-9.90373
▁dejes	-9.90443
▁serious	-9.9056
▁impossible	-9.90598
▁medicine	-9.90598
▁coat	-9.90598
▁escritorio	-9.90599
▁siguió	-9.90602
▁intentó	-9.90607
▁sitting	-9.90638
▁tenés	-9.90766
▁grandes	-9.90798
▁manzanas	-9.90816
▁doubt	-9.90884
▁esas	-9.9117
querés	-9.91181
▁cocinar	-9.91288
▁opinion	-9.91335
▁alta	-9.91351
▁machine	-9.91385
▁manzana	-9.91441
▁success	-9.91658
▁soccer	-9.91662
▁corriendo	-9.91662
▁carry	-9.91686
▁worse	-9.91697
▁also	-9.91789
▁llaves	-9.91966
▁apples	-9.92106
▁morir	-9.92289
tiene	-9.92459
ro	-9.92602
▁ideas	-9.92612
▁caliente	-9.92737
▁written	-9.92737
▁hablo	-9.9274
▁estuviera	-9.9274
▁desayuno	-9.92741
▁hacía	-9.92745
▁bailar	-9.92754
▁aquella	-9.92768
▁suelo	-9.92791
▁respecto	-9.92794
tion	-9.92809
▁dile	-9.92838
▁listening	-9.92928
▁pareces	-9.93247
▁silla	-9.93607
▁piece	-9.93627
▁lleno	-9.9363
▁bird	-9.93633
▁afuera	-9.93663
▁sun	-9.93826
▁jefe	-9.93827
▁serio	-9.93904
▁chicos	-9.94292
▁contar	-9.94752
▁clima	-9.94831
▁tendrá	-9.94854
▁amable	-9.94877
▁foreign	-9.94908
▁corazón	-9.94923
▁felices	-9.94927
▁quedarme	-9.9498
▁funciona	-9.94985
▁saben	-9.95014
unque	-9.95076
para	-9.9526
▁liked	-9.95267
▁taken	-9.95401
▁gas	-9.95501
alguna	-9.95556
▁matar	-9.9556
▁mensaje	-9.95812
▁fotos	-9.95816
▁rojo	-9.95838
▁derecho	-9.95844
▁teach	-9.95861
▁ninguno	-9.96034
▁propia	-9.96034
▁siguiente	-9.96034
▁cielo	-9.96034
▁trató	-9.96035
▁ocho	-9.96041
▁supongo	-9.96123
▁expected	-9.96184
▁consider	-9.96349
ha	-9.96707
▁chocolate	-9.96948
▁message	-9.96964
▁precio	-9.96989
▁happens	-9.97054
▁save	-9.97063
▁detrás	-9.97158
▁viendo	-9.97162
▁bebe	-9.9718
▁noticias	-9.97214
▁months	-9.97418
▁cause	-9.97515
▁american	-9.97517
▁salt	-9.97524
▁dicen	-9.97609
▁irse	-9.97614
▁past	-9.97941
▁public	-9.97968
▁tierra	-9.9809
▁chair	-9.98119
▁torta	-9.98163
▁foot	-9.98194
▁iré	-9.98241
▁church	-9.98294
▁sky	-9.98294
▁francia	-9.98294
▁éste	-9.98294
▁mirando	-9.98317
▁favorita	-9.98351
▁confiar	-9.98395
▁amo	-9.9883
podría	-9.98952
▁waste	-9.9901
▁perfect	-9.99056
▁keys	-9.99121
▁paciente	-9.99247
▁horse	-9.99296
▁brazo	-9.99298
▁smart	-9.99443
▁iglesia	-9.99443
▁bread	-9.99444
▁escribió	-9.99452
▁olvidó	-9.99456
▁segura	-9.9947
▁correcto	-9.99652
▁comprado	-9.99665
▁walking	-9.99778
▁girls	-9.99851
con	-9.99927
▁querés	-9.99977
▁mil	-10.0007
▁languages	-10.0013
▁hermanos	-10.0024
or	-10.0027
▁quiera	-10.003
▁quedé	-10.0034
▁caro	-10.0042
▁animal	-10.0042
▁negro	-10.0046
▁tras	-10.0052
▁join	-10.0059
▁empleo	-10.0061
▁osaka	-10.0061
▁diciendo	-10.0061
▁comiendo	-10.0061
▁boss	-10.0061
▁easily	-10.0061
▁shop	-10.0062
▁leído	-10.0062
▁pescado	-10.0063
▁ball	-10.0068
▁pared	-10.0086
▁france	-10.009
▁correr	-10.0101
▁pretend	-10.0108
▁smile	-10.0149
▁anciano	-10.0165
▁periódico	-10.0166
▁domingo	-10.0168
▁gun	-10.0174
▁necesario	-10.0178
▁thousand	-10.0178
▁shot	-10.0178
▁choose	-10.0178
▁poca	-10.0179
▁comenzó	-10.018
▁normalmente	-10.0182
▁refused	-10.0184
▁ves	-10.0202
▁lend	-10.0213
▁reglas	-10.0215
▁cuál	-10.0243
▁sounds	-10.0252
▁pictures	-10.0257
▁count	-10.0267
us	-10.027
▁law	-10.0274
cia	-10.0281
▁sentence	-10.0285
▁contento	-10.0285
▁suena	-10.0298
▁habló	-10.0298
▁novio	-10.0298
▁novela	-10.0299
▁quedarse	-10.0302
▁necesitaba	-10.0306
▁dejado	-10.0312
▁estés	-10.0317
▁happening	-10.0331
▁cream	-10.0343
▁warm	-10.0354
▁nació	-10.0378
▁surprise	-10.0388
▁novel	-10.0396
est	-10.0401
▁llega	-10.0404
▁abierta	-10.0405
▁fault	-10.0405
▁voice	-10.0406
▁vuelve	-10.0406
▁pizza	-10.0406
▁amiga	-10.0407
▁across	-10.0418
▁future	-10.0418
▁prisa	-10.0418
▁almorzar	-10.0418
▁sacó	-10.0418
▁pueblo	-10.0419
▁boyfriend	-10.0419
▁inside	-10.0429
▁remind	-10.0444
iendo	-10.0508
▁yours	-10.0515
▁piso	-10.0529
▁bath	-10.0533
▁noticia	-10.0534
▁pon	-10.0538
▁enemy	-10.054
▁tarta	-10.054
▁vosotros	-10.0543
▁parar	-10.0543
▁carefully	-10.0548
▁domingos	-10.0551
▁c	-10.0571
▁usa	-10.0572
▁ride	-10.0587
▁quiet	-10.0601
▁verme	-10.0603
▁date	-10.0605
▁quedar	-10.0655
▁significa	-10.0658
▁college	-10.0663
▁hicieron	-10.0663
▁chinese	-10.0663
▁asiento	-10.0663
▁claro	-10.0663
▁simplemente	-10.0667
▁llegado	-10.0667
▁contó	-10.067
vimos	-10.0672
▁cooking	-10.0679
less	-10.0718
▁pas	-10.0723
▁cartas	-10.0725
▁echar	-10.073
▁honest	-10.0738
acaso	-10.074
▁escrito	-10.0744
▁remain	-10.0772
▁difference	-10.0777
▁hundred	-10.0783
▁pobre	-10.0783
▁heavy	-10.0788
▁encontrado	-10.0788
▁somewhere	-10.079
▁slowly	-10.079
▁fear	-10.079
▁campo	-10.0791
▁demás	-10.0794
in	-10.0882
▁gustaba	-10.0894
▁fat	-10.0895
▁escape	-10.0901
▁llegue	-10.0905
▁borracho	-10.091
▁president	-10.091
▁bridge	-10.091
▁caballo	-10.0913
▁policeman	-10.0915
▁translate	-10.0915
▁eye	-10.0916
▁ayudó	-10.0916
▁actually	-10.0916
▁suddenly	-10.0916
▁cita	-10.0916
▁evitar	-10.0918
▁laughed	-10.0924
▁gana	-10.0929
▁standing	-10.0934
▁sentía	-10.0935
▁fuimos	-10.0939
▁varia	-10.0941
▁stolen	-10.0943
▁buenos	-10.0949
▁decirme	-10.0959
▁beat	-10.0997
▁wor	-10.0999
▁entiende	-10.1
ncluso	-10.101
▁ama	-10.1011
▁sign	-10.1016
▁puente	-10.1036
▁helado	-10.1037
▁propio	-10.1041
▁newspaper	-10.1042
▁futuro	-10.1043
▁couple	-10.1043
▁empty	-10.1043
▁marry	-10.1043
▁mouth	-10.1045
▁pesar	-10.1046
▁presidente	-10.1048
▁humor	-10.1049
▁escribe	-10.1051
▁none	-10.1055
▁shower	-10.1061
th	-10.1075
ás	-10.1104
▁t	-10.1122
▁rock	-10.1169
▁regret	-10.117
▁querría	-10.1172
▁twenty	-10.1173
▁azúcar	-10.1173
▁lloviendo	-10.1173
▁prueba	-10.1173
▁earth	-10.1173
▁necessary	-10.1173
▁acostumbrado	-10.1173
▁marido	-10.1174
▁eight	-10.1174
▁blood	-10.1174
▁price	-10.1174
▁casó	-10.1174
▁idioma	-10.1174
▁habrá	-10.1176
▁américa	-10.1176
▁failed	-10.1181
bajo	-10.1181
▁entered	-10.1183
▁estudia	-10.1186
▁limpiar	-10.1191
▁ayudarme	-10.1194
▁report	-10.1213
▁escucha	-10.1217
co	-10.122
▁green	-10.1231
▁correct	-10.1235
▁semanas	-10.1254
▁brothers	-10.1281
▁experiencia	-10.1304
▁nervous	-10.1304
▁público	-10.1304
▁funny	-10.1305
▁orgulloso	-10.1305
▁daño	-10.1305
▁verdaderamente	-10.1306
▁check	-10.1306
▁sugar	-10.1307
▁llevo	-10.1316
▁pescar	-10.1318
▁paseo	-10.132
▁moved	-10.1329
▁aware	-10.1344
▁volveré	-10.1352
▁plans	-10.137
cogió	-10.138
▁siente	-10.1403
▁sentí	-10.1419
▁experience	-10.1422
▁fix	-10.1426
▁german	-10.1431
▁enfermedad	-10.1431
▁prison	-10.1436
▁enfadado	-10.1436
▁durmiendo	-10.1438
▁button	-10.144
▁smell	-10.1443
▁larga	-10.1452
▁dientes	-10.1453
▁leaves	-10.1472
▁ley	-10.1475
▁toca	-10.1501
▁eats	-10.1527
▁hará	-10.1544
▁compras	-10.1547
▁fly	-10.1566
▁dejé	-10.1573
▁storm	-10.1573
▁kyoto	-10.1573
▁tormenta	-10.1574
▁pájaro	-10.158
▁fall	-10.158
▁ponga	-10.1583
▁viste	-10.1601
▁guys	-10.1606
▁sino	-10.1631
▁india	-10.1669
▁veía	-10.1672
▁seas	-10.1682
▁deep	-10.1706
ting	-10.1706
▁luna	-10.1706
▁luego	-10.171
▁proyecto	-10.171
▁bolsa	-10.1712
▁enamorado	-10.1715
▁bottle	-10.1717
▁wonderful	-10.1718
▁sentado	-10.1719
▁gift	-10.1721
▁correo	-10.1725
▁kissed	-10.1726
▁dad	-10.179
▁clock	-10.1808
▁vario	-10.1811
ought	-10.1844
▁decide	-10.1846
▁enferma	-10.1849
▁stood	-10.1849
▁veinte	-10.1849
▁zoo	-10.1849
▁grew	-10.1849
▁wallet	-10.1849
▁llegará	-10.1849
▁dijeron	-10.1851
▁matemáticas	-10.1853
▁famoso	-10.1857
▁joke	-10.1859
▁perfecto	-10.1865
▁means	-10.1874
▁dado	-10.1882
▁verlo	-10.1884
▁buenas	-10.1886
▁staying	-10.1926
▁vimos	-10.1938
▁azul	-10.1983
▁owe	-10.1985
▁corbata	-10.199
▁negó	-10.199
▁sintió	-10.1991
▁agradable	-10.1996
▁received	-10.1996
▁native	-10.1997
▁contacto	-10.1998
▁vivía	-10.2
▁recuerda	-10.2001
▁list	-10.2009
▁fact	-10.2013
▁bother	-10.2016
▁decirte	-10.2061
▁prestar	-10.2066
▁borrow	-10.212
▁attend	-10.212
▁especial	-10.2122
▁discuss	-10.2122
▁valor	-10.2126
▁planes	-10.2127
▁jackson	-10.2132
▁taught	-10.2132
▁beginning	-10.2133
▁prometió	-10.2133
▁worst	-10.2134
▁blind	-10.2135
▁calm	-10.2139
▁grave	-10.214
▁diferente	-10.2147
▁preocupado	-10.2147
▁botella	-10.2147
▁paso	-10.2154
▁herido	-10.2154
▁bar	-10.2154
▁king	-10.2155
▁llena	-10.2178
▁igual	-10.2185
▁haces	-10.222
▁mejores	-10.2223
ce	-10.2239
▁arma	-10.2244
ieron	-10.226
▁murder	-10.2263
▁speech	-10.227
▁charge	-10.2273
▁discurso	-10.2277
▁abuela	-10.2277
▁oferta	-10.2277
▁sight	-10.2285
▁bonita	-10.2292
▁smiled	-10.2296
▁birds	-10.2304
▁depende	-10.2309
▁dios	-10.231
▁watched	-10.2339
▁hang	-10.2353
▁temo	-10.2381
▁cuidar	-10.2388
▁ayude	-10.2393
▁conocí	-10.2409
▁europe	-10.2412
▁común	-10.2422
urante	-10.2423
▁levantó	-10.2424
▁nueve	-10.2424
▁tuviera	-10.2424
▁information	-10.2424
▁información	-10.2425
▁planning	-10.2425
▁common	-10.2425
▁totalmente	-10.2425
▁quise	-10.2425
▁soup	-10.2426
▁creía	-10.2427
▁diferencia	-10.243
▁aceptar	-10.2432
▁fruit	-10.2437
▁film	-10.2437
▁line	-10.2446
▁pone	-10.2482
▁parado	-10.2509
▁yen	-10.2523
▁top	-10.2554
p	-10.2557
▁village	-10.2574
▁llueve	-10.2574
▁máquina	-10.2574
▁tampoco	-10.2574
▁spring	-10.2574
▁built	-10.2574
▁inmediatamente	-10.2574
▁neither	-10.2575
▁tratando	-10.2576
▁sopa	-10.2577
▁cambio	-10.2592
▁trees	-10.2593
▁bill	-10.2595
▁fit	-10.2618
▁deje	-10.263
▁alegr	-10.2635
▁succeed	-10.2713
▁exam	-10.2714
▁encima	-10.2725
▁europa	-10.2725
▁shall	-10.2725
▁assume	-10.2725
▁enojado	-10.2725
▁sorprendió	-10.2726
▁anywhere	-10.2726
▁enseñó	-10.2727
▁cierra	-10.2729
▁hago	-10.2732
▁podrá	-10.2732
▁darle	-10.2745
▁junto	-10.2751
▁tuyo	-10.2756
▁volverá	-10.2764
▁haberlo	-10.2773
▁god	-10.2775
▁weeks	-10.2786
▁feelings	-10.2789
eso	-10.2821
▁dan	-10.2821
▁grow	-10.2829
alguien	-10.2831
▁comí	-10.2851
▁sepa	-10.2867
▁crowd	-10.2869
▁alemán	-10.2879
▁silencio	-10.2879
▁studied	-10.2879
▁cheese	-10.2879
▁roto	-10.2879
▁apartment	-10.2879
▁decidido	-10.2879
▁guapa	-10.288
▁single	-10.2886
▁type	-10.2889
▁despierto	-10.2896
▁picnic	-10.2897
▁carrera	-10.2899
▁enemigo	-10.2905
▁rey	-10.2905
▁plays	-10.291
▁resto	-10.292
▁lavar	-10.2922
▁puedas	-10.2944
▁bear	-10.2974
▁deserve	-10.302
▁usual	-10.3029
▁menor	-10.303
b	-10.3032
▁conocido	-10.3035
▁fuji	-10.3035
▁primavera	-10.3035
▁project	-10.3035
▁repente	-10.3035
▁slept	-10.3035
▁sorpresa	-10.3035
▁botón	-10.3035
▁guilty	-10.3036
▁soportar	-10.3037
▁moon	-10.3037
▁teeth	-10.3038
▁respect	-10.3038
▁sentimientos	-10.3047
▁quedarte	-10.3047
▁locked	-10.305
▁rang	-10.3058
▁sorprendido	-10.3061
▁web	-10.3063
▁ésta	-10.3065
▁olvidé	-10.3069
▁odia	-10.3073
▁andar	-10.31
▁hacen	-10.3107
▁leg	-10.3116
▁abajo	-10.3136
▁fill	-10.3139
▁forgive	-10.3153
án	-10.3171
▁welcome	-10.3179
▁museum	-10.3194
▁yellow	-10.3194
▁museo	-10.3194
▁ganó	-10.3194
▁grandmother	-10.3195
▁tonto	-10.3195
▁nine	-10.3209
▁saturday	-10.3216
▁deseo	-10.3224
▁cualquiera	-10.3233
ver	-10.3235
▁likely	-10.3276
▁tengas	-10.3278
▁cards	-10.3299
▁apologize	-10.334
▁convince	-10.334
▁coger	-10.3343
▁bosque	-10.3355
▁funeral	-10.3355
▁history	-10.3355
▁mintiendo	-10.3355
▁paz	-10.3355
▁resfriado	-10.3355
▁earlier	-10.3356
▁estáis	-10.3356
▁seguridad	-10.3356
▁mitad	-10.3356
▁adelante	-10.3356
hrew	-10.3356
▁wedding	-10.3357
▁lentes	-10.3357
▁prestado	-10.3357
▁throw	-10.3358
▁rule	-10.3366
ré	-10.3371
▁mom	-10.3379
▁quitó	-10.339
▁pelota	-10.3393
▁baja	-10.3393
▁painting	-10.3396
▁duda	-10.3407
▁olvides	-10.3414
▁verde	-10.3414
▁player	-10.3434
▁crime	-10.3481
▁películas	-10.3483
▁cars	-10.3509
▁pájaros	-10.3511
▁pocos	-10.3511
▁medicina	-10.3519
▁vuelto	-10.3519
▁bike	-10.3519
▁fence	-10.3519
▁premio	-10.352
▁intención	-10.3521
▁held	-10.3521
▁tomado	-10.3523
▁tele	-10.3537
▁pintura	-10.3552
▁esperanza	-10.3552
▁finger	-10.3556
▁star	-10.3557
▁ojo	-10.356
▁idiota	-10.3562
▁tratar	-10.3583
▁drinks	-10.3599
▁sabemos	-10.3604
▁breath	-10.3658
▁pertenece	-10.3659
▁ech	-10.3678
▁conocía	-10.3683
▁alegra	-10.3684
▁despacio	-10.3686
▁jóvenes	-10.3686
▁vuestra	-10.3686
▁classroom	-10.3686
▁immediately	-10.3687
▁rápidamente	-10.3687
▁satisfied	-10.3687
▁boat	-10.3687
▁escuchando	-10.3688
▁ladrón	-10.3688
▁taller	-10.3689
▁position	-10.369
▁culpable	-10.369
▁intentar	-10.3697
idad	-10.3698
▁admit	-10.3708
▁returned	-10.3713
▁agreed	-10.3716
▁estudio	-10.3722
▁vieja	-10.3722
▁segundo	-10.3723
▁otras	-10.373
▁sonó	-10.3742
▁asking	-10.3777
▁rid	-10.3787
▁alarm	-10.3788
▁negocios	-10.3798
▁hacerte	-10.3802
rá	-10.3819
▁computador	-10.3835
1	-10.3844
▁ordenador	-10.3849
▁alemania	-10.3855
▁prisión	-10.3855
▁woke	-10.3855
▁ahead	-10.3855
▁oyó	-10.3855
▁memoria	-10.3856
▁diario	-10.3856
▁hermoso	-10.3856
▁olvidado	-10.3857
▁extra	-10.3857
▁digo	-10.3858
▁germany	-10.386
béis	-10.3866
▁harder	-10.3867
▁painted	-10.3868
▁tears	-10.387
▁árboles	-10.3871
f	-10.3881
▁grupo	-10.3894
▁listened	-10.3896
▁vuestro	-10.3897
▁fired	-10.3919
▁oro	-10.3956
▁queso	-10.3968
▁interesa	-10.398
▁personal	-10.3986
▁special	-10.4008
▁veré	-10.4026
▁support	-10.4028
▁ashamed	-10.4028
▁canadá	-10.4028
▁escuchó	-10.4028
▁furniture	-10.4028
▁izquierda	-10.4028
▁multitud	-10.4028
▁paciencia	-10.4028
▁tráfico	-10.4028
▁gustó	-10.4028
▁video	-10.4028
▁government	-10.4028
▁cansada	-10.4029
▁paint	-10.403
▁juega	-10.4031
les	-10.4032
▁faster	-10.4033
▁probable	-10.4035
▁allowed	-10.4041
▁noticed	-10.4043
son	-10.4044
▁laugh	-10.4048
▁picked	-10.405
▁preferiría	-10.4059
▁dressed	-10.406
era	-10.406
▁espalda	-10.4071
▁tema	-10.4079
▁miles	-10.4082
▁enviar	-10.4089
▁hablan	-10.4104
▁wears	-10.411
▁enter	-10.4162
▁cerrar	-10.4195
▁sientes	-10.42
▁university	-10.4203
▁bajó	-10.4203
▁gafas	-10.4203
▁quiso	-10.4203
▁headache	-10.4203
▁cruel	-10.4203
▁kioto	-10.4204
▁cambiado	-10.4205
▁raro	-10.4205
▁oscuro	-10.4206
▁interesado	-10.4207
▁bedroom	-10.4207
▁avoid	-10.4208
▁covered	-10.4212
▁washing	-10.422
▁decid	-10.4225
▁correcta	-10.4236
▁amaba	-10.4239
▁nervioso	-10.4244
▁principio	-10.4246
▁lied	-10.4247
▁roja	-10.425
▁liar	-10.4267
▁forever	-10.4305
▁alcohol	-10.4312
▁ellas	-10.4314
▁traer	-10.4323
▁rains	-10.4328
▁podés	-10.4329
▁100	-10.4329
▁merece	-10.4331
▁stole	-10.4343
▁judge	-10.4356
▁fond	-10.4372
▁absent	-10.4382
▁arroz	-10.4382
▁courage	-10.4382
▁vuelo	-10.4382
▁spanish	-10.4382
▁rice	-10.4382
▁aprendí	-10.4382
▁prize	-10.4382
▁unfortunately	-10.4383
▁subject	-10.4383
▁caminando	-10.4383
▁sonrió	-10.4383
▁solución	-10.4384
▁complaining	-10.4387
▁tía	-10.4388
▁golpeó	-10.4391
▁scared	-10.4391
▁buscar	-10.4397
▁theater	-10.44
▁vegetables	-10.4402
▁aunt	-10.4404
▁honesto	-10.4408
▁allow	-10.4416
▁pair	-10.4425
▁suit	-10.4426
▁wood	-10.4434
▁canada	-10.4434
▁corta	-10.4439
▁levanta	-10.4448
▁profesora	-10.4467
▁nuevos	-10.4479
ia	-10.4493
▁sang	-10.4535
▁windows	-10.4547
▁notice	-10.4553
▁pastel	-10.4558
▁luck	-10.456
▁course	-10.4564
▁cáncer	-10.4564
▁ejercicio	-10.4564
▁friday	-10.4564
▁introduce	-10.4564
▁permiso	-10.4564
▁sofá	-10.4564
▁sucedió	-10.4564
▁viento	-10.4564
▁viernes	-10.4564
▁boring	-10.4564
▁fresh	-10.4564
▁gobierno	-10.4564
▁brush	-10.4564
▁robado	-10.4564
▁mostró	-10.4565
▁hielo	-10.4565
▁arrested	-10.4572
▁cancer	-10.4572
▁preguntaba	-10.4573
▁casarse	-10.4575
▁vayamos	-10.4583
▁missing	-10.4592
▁island	-10.4598
▁entera	-10.4602
▁paró	-10.4604
▁ended	-10.4604
▁map	-10.4609
▁preparado	-10.4614
▁ring	-10.4616
▁chino	-10.4617
▁trampa	-10.4617
▁llamada	-10.4619
▁soldiers	-10.4628
▁soldados	-10.4628
ciones	-10.4628
▁rent	-10.4632
mong	-10.4636
▁platos	-10.4649
bido	-10.469
todavía	-10.4701
▁peace	-10.4726
▁delicious	-10.4749
▁encuentro	-10.4749
▁hobby	-10.4749
▁innocent	-10.4749
▁jacket	-10.4749
▁japoneses	-10.4749
▁license	-10.4749
▁purpose	-10.4749
▁sonrisa	-10.4749
▁truck	-10.4749
▁dropped	-10.4749
▁horrible	-10.4749
▁guste	-10.4749
▁consiguió	-10.4749
▁llorando	-10.475
▁chicago	-10.475
▁corrió	-10.475
▁middle	-10.4751
▁centro	-10.4751
▁invite	-10.4751
▁bare	-10.4752
▁desayunar	-10.4753
▁disappointed	-10.4754
▁cargo	-10.4754
▁ex	-10.4763
▁explained	-10.4777
▁abre	-10.4778
▁wind	-10.478
▁raise	-10.4786
▁lee	-10.4791
▁corto	-10.4799
▁chicas	-10.4803
▁bolígrafo	-10.4803
▁pierna	-10.4807
▁af	-10.4808
▁tra	-10.4821
▁escaleras	-10.4824
▁answered	-10.4832
▁sacar	-10.4848
▁ducha	-10.4849
▁español	-10.4877
▁familiar	-10.4895
▁corre	-10.4896
▁partir	-10.4912
▁parecen	-10.4918
▁natural	-10.4928
▁heat	-10.4937
▁aburrido	-10.4938
▁hicimos	-10.4938
▁instead	-10.4938
▁straight	-10.4938
▁stuck	-10.4938
▁understood	-10.4938
▁profundamente	-10.4938
▁linda	-10.4939
▁bored	-10.4941
▁actor	-10.4941
▁race	-10.4941
▁yenes	-10.4946
▁reached	-10.4946
▁madera	-10.4949
▁limpia	-10.495
▁darme	-10.4967
▁nuestras	-10.4967
▁ordered	-10.4968
▁rara	-10.4992
▁discutir	-10.4994
▁cerrada	-10.4994
▁frase	-10.4995
▁verdadero	-10.4998
▁fruta	-10.4998
▁promesa	-10.4999
▁flower	-10.5001
▁sports	-10.5024
▁conocen	-10.5037
▁arreglar	-10.5048
▁permitir	-10.5059
▁conocer	-10.5067
ca	-10.5098
▁legs	-10.5098
▁f	-10.5112
▁appreciate	-10.5115
▁attack	-10.5118
▁post	-10.5119
▁drop	-10.512
▁isla	-10.5128
▁body	-10.513
▁explanation	-10.513
▁frecuencia	-10.513
▁injured	-10.513
▁inocente	-10.513
▁intelligent	-10.513
▁lápiz	-10.513
▁opción	-10.513
▁tarjeta	-10.513
▁duty	-10.513
▁llame	-10.513
▁recognize	-10.513
▁conductor	-10.513
▁sweater	-10.513
▁manejar	-10.5136
▁seriously	-10.5138
▁low	-10.5145
▁convinced	-10.5148
▁extreme	-10.515
▁saved	-10.5156
▁países	-10.5159
▁explicar	-10.5182
▁satisfecho	-10.5192
▁negocio	-10.5198
▁lock	-10.5202
▁cd	-10.522
▁belongs	-10.5223
▁contact	-10.5224
▁dedo	-10.5242
ford	-10.5275
▁agrada	-10.5278
▁precios	-10.5281
▁general	-10.532
▁cool	-10.5324
▁account	-10.5326
▁awake	-10.5326
▁chaqueta	-10.5326
▁japonesa	-10.5326
▁midnight	-10.5326
▁segunda	-10.5326
▁viviendo	-10.5326
▁space	-10.5326
▁respondió	-10.5326
▁accused	-10.5327
▁recently	-10.5327
▁power	-10.5327
▁absolutely	-10.5327
▁mapa	-10.5337
▁elegir	-10.534
▁averiguar	-10.5342
▁sangre	-10.5342
▁tenéis	-10.5343
▁pies	-10.5355
▁tuya	-10.5355
▁enseñar	-10.5368
▁darte	-10.537
▁crimen	-10.5373
▁comenzar	-10.5383
▁exercise	-10.5389
▁orden	-10.539
▁rica	-10.5391
▁incendio	-10.5392
▁nativo	-10.5392
▁pencil	-10.5394
▁encuentra	-10.5394
▁singer	-10.5394
▁broma	-10.5394
▁intenta	-10.5401
▁mentira	-10.5401
▁romper	-10.5409
▁speaker	-10.5409
robó	-10.5441
ful	-10.5454
▁mirar	-10.5477
esto	-10.5482
▁believed	-10.5487
▁fail	-10.5514
▁decidir	-10.5516
▁hung	-10.5524
▁consciente	-10.5526
▁escuché	-10.5526
▁harvard	-10.5526
▁behavior	-10.5526
▁cash	-10.5526
▁england	-10.5526
▁medianoche	-10.5526
▁escribiendo	-10.5526
▁dirty	-10.5526
▁explicación	-10.5526
▁bigger	-10.5528
▁dishes	-10.5528
▁shy	-10.5528
▁huele	-10.5528
▁entire	-10.5532
▁sooner	-10.5538
▁fighting	-10.5546
él	-10.5559
▁sold	-10.558
▁cuerda	-10.559
▁cantante	-10.5595
▁entrada	-10.5598
▁flor	-10.5599
▁keeps	-10.562
ted	-10.5625
▁irte	-10.5656
▁agarr	-10.5657
id	-10.5669
▁necesitan	-10.567
podemos	-10.5682
▁prices	-10.5728
▁gold	-10.5728
▁cuerpo	-10.573
▁espacio	-10.573
▁fiebre	-10.573
▁toilet	-10.573
▁nací	-10.573
▁pasaporte	-10.573
▁cortó	-10.573
▁passport	-10.573
▁descanso	-10.5731
▁copy	-10.5732
▁dispuesto	-10.5732
▁salvo	-10.5732
▁healthy	-10.5738
▁card	-10.5739
▁accepted	-10.5758
▁daré	-10.5759
k	-10.5777
▁convencer	-10.5778
▁employees	-10.5786
▁línea	-10.5803
▁risk	-10.5803
▁boda	-10.5804
▁group	-10.5804
▁modo	-10.5809
▁bella	-10.581
▁hey	-10.5824
ió	-10.5828
▁casada	-10.5834
▁yes	-10.5834
▁stick	-10.5838
▁dreams	-10.5843
▁hables	-10.5846
▁anda	-10.5887
▁apareció	-10.5906
▁relax	-10.5916
▁querías	-10.5925
▁knock	-10.593
▁fair	-10.5934
▁hid	-10.5936
▁sisters	-10.5936
▁idiomas	-10.5936
▁escapar	-10.5938
▁accord	-10.5938
▁dancing	-10.5938
▁inglaterra	-10.5938
▁mood	-10.5938
▁murieron	-10.5938
▁aprendiendo	-10.5938
▁size	-10.5941
▁hazlo	-10.5944
▁pedirle	-10.5946
▁ocultar	-10.5947
▁laughing	-10.595
▁bote	-10.595
▁pintar	-10.5957
▁harm	-10.5966
▁human	-10.5967
▁duerme	-10.5968
▁feels	-10.599
▁empleados	-10.6006
▁cookies	-10.6015
▁bonito	-10.6017
▁sábado	-10.6019
▁página	-10.6019
▁resultado	-10.6024
▁deporte	-10.6025
▁compare	-10.6034
".	-10.6048
▁irá	-10.6055
▁dices	-10.6067
▁encantan	-10.6074
▁talks	-10.6076
▁vivid	-10.6078
adamente	-10.6095
▁trae	-10.6096
.000	-10.6096
▁protect	-10.6103
▁art	-10.6105
▁italia	-10.6108
▁bell	-10.6114
▁ventanas	-10.612
▁tanta	-10.6125
▁hermanas	-10.6139
▁cien	-10.615
▁absoluta	-10.6151
▁lonely	-10.6151
▁themselves	-10.6151
▁cambió	-10.6151
▁casualidad	-10.6151
▁derecha	-10.6151
▁bromeando	-10.6151
▁suicide	-10.6151
▁billetera	-10.6152
▁monte	-10.6152
▁fever	-10.6152
▁involved	-10.6153
▁italy	-10.6153
▁acabó	-10.6155
▁mató	-10.6156
▁recibió	-10.6156
▁preocupes	-10.6164
▁solas	-10.6165
▁fuiste	-10.6169
▁expecting	-10.6174
▁canciones	-10.6182
▁vuelva	-10.6196
▁recibir	-10.6198
▁idiot	-10.6219
ella	-10.623
▁gusto	-10.6231
▁política	-10.6234
▁handed	-10.6234
▁maleta	-10.6237
▁muchacho	-10.6237
▁preguntar	-10.6246
▁luces	-10.6249
▁san	-10.6254
▁cruz	-10.6256
▁piernas	-10.63
jo	-10.6307
go	-10.6315
▁mente	-10.6358
▁cheap	-10.6367
giving	-10.6368
▁comienza	-10.6368
▁cárcel	-10.6368
▁genial	-10.6368
▁seldom	-10.6368
▁oscuridad	-10.6369
▁propuesta	-10.6369
▁fresco	-10.6369
▁perdón	-10.6369
▁vine	-10.6369
▁math	-10.6369
▁robaron	-10.6371
▁butter	-10.6371
▁fría	-10.6371
▁explicó	-10.6372
▁cumplir	-10.6372
ría	-10.6374
▁pregunté	-10.6376
▁fed	-10.6391
▁followed	-10.6407
▁pasará	-10.6413
▁begins	-10.6418
▁fool	-10.6436
▁casar	-10.6446
▁view	-10.6449
▁rained	-10.645
▁chicken	-10.6451
▁flight	-10.6454
▁magazine	-10.6458
▁calling	-10.6474
▁suyo	-10.6482
▁importar	-10.6485
▁lack	-10.6488
▁hablado	-10.651
aste	-10.6516
los	-10.6551
▁uso	-10.6553
▁das	-10.6573
▁honor	-10.6576
▁sentir	-10.6583
amente	-10.6586
▁countries	-10.6591
▁jealous	-10.6591
▁pérdida	-10.6591
▁sencilla	-10.6591
▁thief	-10.6591
▁roof	-10.6591
▁camión	-10.6591
▁suspect	-10.6591
▁comportamiento	-10.6591
▁asesinato	-10.6591
▁dudo	-10.6591
▁cometido	-10.6591
▁continue	-10.6591
▁cried	-10.6593
▁oil	-10.6594
▁motor	-10.6594
▁techo	-10.6597
▁managed	-10.6598
▁trabajó	-10.6598
▁cerró	-10.6602
▁land	-10.6603
▁llamaré	-10.6605
▁eras	-10.6606
▁fácilmente	-10.6606
▁besó	-10.6609
▁muebles	-10.661
▁dedos	-10.6612
▁arte	-10.6612
▁pasamos	-10.662
▁prove	-10.6629
ación	-10.6641
▁vote	-10.6663
▁leí	-10.6677
▁blanca	-10.6681
▁trozo	-10.6685
▁pocket	-10.6686
▁revista	-10.6687
▁sueños	-10.6703
▁cortar	-10.6717
▁meant	-10.6724
▁hablas	-10.6729
conoces	-10.6733
na	-10.6742
▁conoces	-10.6801
▁treat	-10.6804
tu	-10.6807
▁útil	-10.6811
▁eventually	-10.6818
▁football	-10.6818
▁hokkaido	-10.6818
▁inmediato	-10.6818
▁internet	-10.6818
▁ourselves	-10.6818
▁propósito	-10.6818
▁quince	-10.6818
▁solution	-10.6818
▁unlikely	-10.6818
▁famosa	-10.6818
▁mediodía	-10.6818
▁memory	-10.6818
▁ante	-10.6819
▁excelente	-10.6819
áis	-10.6819
▁salido	-10.6819
▁lady	-10.682
▁importaría	-10.6821
▁quédate	-10.6823
▁rope	-10.6827
▁llamado	-10.6828
▁climbed	-10.6828
▁podé	-10.683
▁lágrimas	-10.6832
▁entero	-10.6834
▁raised	-10.6837
▁subió	-10.684
▁considered	-10.6844
▁hagamos	-10.6846
ies	-10.6858
▁extrem	-10.6867
▁lay	-10.6875
▁volar	-10.6887
▁exist	-10.6897
▁ocupados	-10.6904
▁taste	-10.6906
▁gra	-10.6912
▁supiera	-10.6917
▁piedra	-10.6918
▁dulce	-10.6919
▁neighbor	-10.692
▁stranger	-10.693
▁rumor	-10.6932
▁ma	-10.6932
▁hable	-10.6938
usted	-10.6941
▁parada	-10.6943
▁games	-10.6964
▁preparar	-10.6999
▁diet	-10.7018
▁canta	-10.703
▁iremos	-10.7031
▁jokes	-10.7033
▁enseña	-10.7035
▁televisor	-10.7043
▁similar	-10.7044
▁step	-10.7047
▁barato	-10.7051
▁demasiada	-10.7051
▁stairs	-10.7051
▁teatro	-10.7051
▁facilidad	-10.7051
▁feet	-10.7051
▁joking	-10.7051
▁escondiendo	-10.7051
▁corner	-10.7051
▁recibí	-10.7051
▁destino	-10.7051
▁forgotten	-10.7051
▁denied	-10.7051
▁éstos	-10.7052
▁useful	-10.7053
▁menu	-10.7054
▁delante	-10.7056
▁forced	-10.706
▁galletas	-10.7068
▁continued	-10.7068
▁tendré	-10.7068
▁doble	-10.7077
▁dieta	-10.7077
▁compraste	-10.7079
▁washed	-10.708
▁contestar	-10.7082
▁promet	-10.7085
▁cometer	-10.709
▁helping	-10.7098
▁extraña	-10.7111
▁sois	-10.7117
▁willing	-10.7129
▁fábrica	-10.7151
▁habit	-10.7153
▁sweet	-10.7154
▁bolsillo	-10.7156
▁claim	-10.7158
▁kid	-10.716
▁songs	-10.7174
▁admitt	-10.7195
▁debía	-10.7209
▁losing	-10.7213
it	-10.7225
▁lenguas	-10.7238
▁dejara	-10.7256
ban	-10.7257
quiera	-10.726
▁stuff	-10.7274
▁correos	-10.7276
▁appear	-10.7276
▁principal	-10.7282
▁tight	-10.7284
▁visa	-10.7286
▁rude	-10.7288
▁accustom	-10.7289
▁comienzo	-10.7289
▁fifteen	-10.7289
▁jazz	-10.7289
▁obra	-10.7289
▁particular	-10.7289
▁recommend	-10.7289
▁juice	-10.7289
▁above	-10.7289
▁sabido	-10.7289
▁peces	-10.7289
▁pez	-10.7289
▁goodbye	-10.7289
▁comfortable	-10.7289
▁pity	-10.7289
▁south	-10.7289
▁educación	-10.7289
▁pegó	-10.729
▁sushi	-10.7291
▁felicidad	-10.7292
▁happiness	-10.7292
▁trap	-10.7293
▁confused	-10.7293
▁gate	-10.7295
▁describe	-10.7295
ido	-10.7296
▁acabado	-10.7298
▁asistir	-10.7301
▁últimamente	-10.7304
▁dumb	-10.7308
▁prepared	-10.7309
▁fixed	-10.731
quiere	-10.7315
▁beso	-10.7325
▁querían	-10.7327
eron	-10.733
▁doce	-10.7347
▁míos	-10.7358
▁add	-10.7368
▁quedaré	-10.7371
▁invitados	-10.7389
▁conduce	-10.7398
▁season	-10.7403
▁letters	-10.7405
ga	-10.7476
ness	-10.7485
▁pelea	-10.7489
▁llamas	-10.7494
bbed	-10.7527
▁adentro	-10.7533
▁appointment	-10.7533
▁ciego	-10.7533
▁discusión	-10.7533
▁disparó	-10.7533
▁hablé	-10.7533
▁request	-10.7533
▁supermarket	-10.7533
▁supermercado	-10.7533
▁levanté	-10.7533
▁million	-10.7533
▁argue	-10.7533
▁distancia	-10.7533
▁tongue	-10.7533
▁factory	-10.7533
▁blew	-10.7533
▁anyway	-10.7534
▁excited	-10.7534
▁drugs	-10.7535
▁invitó	-10.7537
▁burned	-10.7541
▁distance	-10.7545
▁escaped	-10.7563
ese	-10.7565
hap	-10.7568
▁americans	-10.757
▁espere	-10.7602
▁mountains	-10.7608
▁preocupa	-10.7626
▁oranges	-10.7639
▁traj	-10.7642
▁harto	-10.7643
vivió	-10.7647
▁calls	-10.7648
▁earthquake	-10.7648
▁stone	-10.765
▁vecino	-10.7652
▁teníamos	-10.7654
gged	-10.7657
▁tastes	-10.7672
▁u	-10.7676
▁lleve	-10.7679
▁meaning	-10.768
▁hacemos	-10.768
▁condition	-10.7688
▁ayudara	-10.7689
▁programa	-10.7692
tuvieron	-10.7712
▁regresar	-10.7728
▁fingers	-10.7729
yo	-10.7733
▁descubri	-10.774
▁planea	-10.7741
▁fingi	-10.7748
las	-10.7755
▁tenían	-10.7767
▁distinguir	-10.7769
▁paga	-10.7773
rse	-10.7775
▁allergi	-10.7779
ped	-10.7781
▁jugador	-10.7782
▁cruzar	-10.7782
▁attempt	-10.7783
▁llueva	-10.7783
▁maestro	-10.7783
▁temperatura	-10.7783
▁llamé	-10.7783
▁gratis	-10.7783
▁esquina	-10.7783
▁bathroom	-10.7783
▁gordo	-10.7783
▁illness	-10.7783
▁ése	-10.7783
▁intenté	-10.7783
▁basura	-10.7783
▁llámame	-10.7783
▁diré	-10.7784
▁arriba	-10.7784
▁levantarse	-10.7787
▁increíble	-10.7787
▁jumped	-10.7791
▁brave	-10.7793
▁llegamos	-10.7797
▁hablante	-10.7799
▁armas	-10.7804
▁g	-10.7818
▁lights	-10.7821
▁contado	-10.7828
▁act	-10.7829
▁cola	-10.7839
pareció	-10.7842
▁aquellos	-10.7852
▁hojas	-10.7858
▁culpar	-10.7868
▁acaso	-10.7881
▁mentiroso	-10.7899
▁muñeca	-10.7903
▁suitcase	-10.7906
▁partes	-10.7923
cted	-10.7932
▁pretende	-10.7934
▁copia	-10.7956
time	-10.7963
w	-10.7981
va	-10.8004
▁obey	-10.8026
seando	-10.8026
▁intend	-10.8027
ándose	-10.8028
▁escribí	-10.8029
▁area	-10.8031
▁mañanas	-10.8035
▁cuida	-10.8035
▁enorme	-10.8036
▁absoluto	-10.8039
▁ajedrez	-10.8039
▁avergonzado	-10.8039
▁bebida	-10.8039
▁cuello	-10.8039
▁excellent	-10.8039
▁moving	-10.8039
▁nosotras	-10.8039
▁studies	-10.8039
▁naked	-10.8039
▁lazy	-10.8039
▁teoría	-10.8039
▁bolso	-10.8039
▁naive	-10.8039
▁email	-10.8039
▁encontramos	-10.8039
▁chess	-10.804
▁someday	-10.8041
▁recibido	-10.8041
▁esposo	-10.8042
▁preguntarle	-10.8044
▁llegaste	-10.8047
▁apuesto	-10.8048
man	-10.8049
▁loud	-10.8056
▁bomb	-10.8059
▁climate	-10.8061
▁pre	-10.8063
▁pond	-10.8064
▁apagar	-10.8067
▁saberlo	-10.8068
▁vender	-10.807
▁pleased	-10.8076
▁vemos	-10.8081
▁pieces	-10.8088
▁descansar	-10.809
▁detalles	-10.8092
▁vete	-10.8114
▁hearing	-10.8138
▁desea	-10.8154
están	-10.8156
▁costumbre	-10.8164
▁caballero	-10.8165
▁mirada	-10.8165
▁vacía	-10.8169
▁fuerza	-10.8169
▁fotografía	-10.8171
▁metro	-10.8175
▁fondo	-10.818
▁runs	-10.8199
▁molesta	-10.8204
▁farm	-10.8204
▁andando	-10.8207
▁ganado	-10.8212
▁guard	-10.8217
▁despertar	-10.8234
▁meal	-10.824
▁mo	-10.825
▁imagin	-10.8255
▁reserva	-10.826
prendió	-10.8271
▁climb	-10.828
▁reach	-10.829
▁hogar	-10.8295
enza	-10.8297
▁mt	-10.8299
▁hi	-10.8302
▁patience	-10.8302
▁pedido	-10.8302
▁proposal	-10.8302
▁temperature	-10.8302
▁examination	-10.8302
▁handsome	-10.8302
▁permission	-10.8302
▁sospechoso	-10.8302
▁clever	-10.8302
▁menú	-10.8302
▁theory	-10.8302
▁awful	-10.8303
▁salary	-10.8303
▁cubierta	-10.8303
▁preparando	-10.8304
▁anillo	-10.8304
▁discovered	-10.8305
▁cute	-10.8306
▁bajar	-10.8309
▁dieron	-10.831
▁prevented	-10.831
▁skiing	-10.8311
▁suggested	-10.8312
▁rome	-10.8312
nte	-10.8313
▁clearly	-10.8314
▁llegaron	-10.8323
▁teaching	-10.8325
▁mail	-10.8325
▁limpio	-10.8325
▁socks	-10.8328
▁verduras	-10.8328
▁dura	-10.8329
▁sleepy	-10.8332
▁montar	-10.8337
▁urgente	-10.8343
▁solved	-10.8344
▁drogas	-10.835
ity	-10.8351
▁mayores	-10.8352
▁trusted	-10.8354
▁profesores	-10.8362
▁ski	-10.8364
viste	-10.8372
▁vol	-10.8382
▁casados	-10.8384
miento	-10.8385
▁matters	-10.8391
iste	-10.8423
▁naranjas	-10.8424
▁banda	-10.8425
▁pistola	-10.8434
▁cuidadoso	-10.8438
▁terremoto	-10.8438
▁atrapado	-10.8439
▁hole	-10.844
▁diría	-10.844
▁cousin	-10.8441
▁skirt	-10.8441
▁holiday	-10.8441
▁belong	-10.8442
arse	-10.8447
▁computadora	-10.8453
▁apart	-10.8466
▁golpe	-10.8467
▁arrest	-10.8483
▁oh	-10.8509
▁sonar	-10.8519
▁pinta	-10.8529
▁necesitar	-10.8532
▁smells	-10.8563
h	-10.8565
▁pull	-10.8565
▁posibilidad	-10.8565
▁valiente	-10.8569
▁silent	-10.857
▁carretera	-10.8572
▁durmió	-10.8572
▁empresa	-10.8572
▁nariz	-10.8572
▁población	-10.8572
▁resemble	-10.8572
▁responsible	-10.8572
▁sistema	-10.8572
▁twelve	-10.8572
▁refrigerator	-10.8572
▁jail	-10.8572
▁impidió	-10.8572
▁pareja	-10.8572
▁sueldo	-10.8572
▁gentleman	-10.8572
▁orgullosa	-10.8572
▁bottom	-10.8572
▁respeto	-10.8573
▁vistazo	-10.8573
▁profundo	-10.8573
▁equivocada	-10.8573
▁confianza	-10.8573
▁cartera	-10.8574
▁grass	-10.8574
▁upset	-10.8575
▁envió	-10.8575
▁due	-10.8577
▁abandoned	-10.8578
▁stealing	-10.8579
▁kick	-10.8583
▁texto	-10.8584
▁band	-10.8594
▁attended	-10.8596
▁sh	-10.8596
▁record	-10.86
▁estuviste	-10.8609
▁dejaré	-10.8613
▁permite	-10.8616
▁papas	-10.8619
▁duró	-10.8627
▁friendly	-10.8627
▁coge	-10.8629
▁alcanzar	-10.8641
▁noon	-10.8653
▁verg	-10.8667
▁hablaba	-10.8677
filled	-10.868
▁estrellas	-10.8697
▁ears	-10.8702
▁ear	-10.8703
▁cuadro	-10.871
▁adopt	-10.8711
▁artículo	-10.8712
▁dormitorio	-10.8712
▁vecinos	-10.8716
▁page	-10.8719
▁plato	-10.872
▁huevo	-10.872
remos	-10.8721
▁cabo	-10.8727
▁poema	-10.873
ry	-10.8738
▁debí	-10.8766
▁costs	-10.879
▁urgent	-10.8807
▁dormí	-10.8816
▁cross	-10.8821
,"	-10.8821
▁dry	-10.8841
▁reír	-10.8843
▁match	-10.8844
▁slight	-10.8846
▁slow	-10.8847
▁amount	-10.885
▁disculpe	-10.885
▁emergency	-10.885
▁estómago	-10.885
▁responsable	-10.885
▁stories	-10.885
▁system	-10.885
▁tímido	-10.885
▁drove	-10.885
▁remedio	-10.885
▁opportunity	-10.885
▁nurse	-10.885
▁esquiar	-10.885
▁ipad	-10.885
▁agreement	-10.8851
▁preferido	-10.8851
▁neck	-10.8852
▁potatoes	-10.8852
▁trago	-10.8852
▁completo	-10.8853
▁saludable	-10.8856
▁popula	-10.8858
▁ciento	-10.8859
▁listos	-10.8864
▁cantando	-10.8865
▁bang	-10.8867
▁teaches	-10.8867
▁quedado	-10.8868
▁imagine	-10.8869
so	-10.887
▁sonido	-10.8873
▁kinds	-10.8875
▁difficulty	-10.8877
▁esperamos	-10.8878
▁dale	-10.8883
▁levantar	-10.8883
▁requiere	-10.8916
▁calma	-10.8922
▁depends	-10.8924
este	-10.8925
▁visita	-10.8927
▁miembros	-10.8941
▁rare	-10.8946
▁vengas	-10.8979
▁poem	-10.8991
▁viejos	-10.8991
▁lasted	-10.8992
▁objetivo	-10.9001
▁estrella	-10.9005
▁naranja	-10.9005
▁sport	-10.9006
▁egg	-10.9006
▁rose	-10.9009
▁bomba	-10.9009
▁luce	-10.9009
▁turno	-10.9021
▁bite	-10.9027
▁artist	-10.9028
▁hated	-10.903
▁spends	-10.9047
ook	-10.9067
▁noches	-10.9071
▁creí	-10.9112
▁compra	-10.9118
io	-10.9118
▁hechos	-10.9119
▁necesidad	-10.9129
▁bright	-10.9133
▁cincuenta	-10.9136
▁energy	-10.9136
▁improbable	-10.9136
▁lloró	-10.9136
▁mantequilla	-10.9136
▁neighborhood	-10.9136
▁plenty	-10.9136
▁relación	-10.9136
▁cabello	-10.9136
▁inútil	-10.9136
▁musician	-10.9136
▁esperó	-10.9136
▁market	-10.9136
▁hubiese	-10.9136
▁ground	-10.9136
▁castillo	-10.9136
▁winning	-10.9136
▁matrimonio	-10.9136
▁convencido	-10.9136
▁dying	-10.9136
▁convenció	-10.9137
▁ejemplo	-10.9137
▁castle	-10.9138
▁agradecido	-10.9138
bió	-10.9144
▁definite	-10.9145
▁passengers	-10.9145
▁querer	-10.9147
▁hill	-10.9151
▁tomé	-10.9152
▁deaf	-10.916
▁bebió	-10.9161
▁regalos	-10.9164
▁leyó	-10.9166
▁classes	-10.9172
▁saltó	-10.9177
▁loca	-10.9178
▁llen	-10.918
▁express	-10.9182
▁probar	-10.9187
▁acordar	-10.9187
▁prepare	-10.9213
▁tickets	-10.9221
▁alarma	-10.9228
▁escritor	-10.9237
▁seré	-10.9249
▁autos	-10.926
▁rog	-10.9271
▁pasatiempo	-10.9288
▁ingenuo	-10.9289
▁nor	-10.9291
▁motivo	-10.9292
▁scientist	-10.9293
▁bienvenido	-10.9295
▁uses	-10.9297
▁esfuerzo	-10.9299
▁photo	-10.9299
▁acepta	-10.9301
▁detail	-10.9312
▁tomando	-10.9313
▁abra	-10.9338
▁woods	-10.9346
▁hagan	-10.9353
▁divide	-10.9358
▁stars	-10.9365
▁proteger	-10.9394
▁diferentes	-10.94
mi	-10.9403
▁admiti	-10.9406
▁complete	-10.9412
tengo	-10.9418
▁salí	-10.9421
reció	-10.9425
▁wise	-10.9426
▁sharp	-10.9428
▁education	-10.9429
▁rehus	-10.943
▁puntual	-10.943
safortunadamente	-10.943
▁airplane	-10.943
▁confío	-10.943
▁conversation	-10.943
▁elevator	-10.943
▁españa	-10.943
▁falda	-10.943
▁pool	-10.943
▁smiling	-10.943
▁amistad	-10.943
▁eleven	-10.943
▁puzzle	-10.943
▁subway	-10.943
▁center	-10.943
▁example	-10.943
▁fifty	-10.943
▁spain	-10.943
▁easier	-10.943
▁cantidad	-10.943
▁thirsty	-10.943
▁prohibido	-10.9431
▁bench	-10.9431
▁puse	-10.9431
▁louder	-10.9432
▁gritó	-10.9432
▁asustado	-10.9432
▁manager	-10.9432
▁pagó	-10.9432
▁huge	-10.9433
▁llevas	-10.9434
▁stronger	-10.9435
▁significado	-10.9439
▁camina	-10.944
▁habido	-10.9441
▁crossed	-10.9443
▁article	-10.9445
▁ignored	-10.9448
▁attacked	-10.9449
▁flying	-10.9451
▁millas	-10.9453
▁weak	-10.9456
▁novelas	-10.9459
▁drug	-10.946
tendremos	-10.9469
▁invitar	-10.9469
▁visité	-10.9469
▁siga	-10.9473
▁entra	-10.9475
▁complain	-10.9477
▁within	-10.9484
▁jugo	-10.9509
▁tarda	-10.9527
▁coma	-10.9564
▁asegurar	-10.957
▁cab	-10.9572
▁results	-10.9584
ero	-10.9586
▁informe	-10.959
▁intention	-10.9596
▁harías	-10.9597
▁afortunado	-10.9597
▁ésa	-10.9597
▁buying	-10.9598
▁servicio	-10.9598
▁neighbors	-10.9598
▁cierta	-10.96
▁estúpida	-10.96
▁estadounidense	-10.9602
▁orange	-10.9603
▁malas	-10.9605
aré	-10.9611
▁compar	-10.9619
▁sta	-10.9622
▁sundays	-10.9648
▁mover	-10.9648
▁roma	-10.9664
▁suya	-10.9673
tenés	-10.9685
▁press	-10.9691
ir	-10.9699
▁modern	-10.971
▁suffer	-10.9723
▁main	-10.9723
▁ignore	-10.9724
▁sandwich	-10.9726
▁curious	-10.9733
▁energía	-10.9733
▁ocean	-10.9733
▁pantalones	-10.9733
▁paquete	-10.9733
▁rechazó	-10.9733
▁round	-10.9733
▁violence	-10.9733
▁área	-10.9733
▁conoció	-10.9733
▁equipaje	-10.9733
▁violencia	-10.9733
▁kidding	-10.9733
▁pollo	-10.9733
▁sofa	-10.9733
▁libertad	-10.9733
▁traducir	-10.9733
▁committed	-10.9733
▁ambas	-10.9734
▁héroe	-10.9734
▁granja	-10.9734
▁tallest	-10.9735
▁empezado	-10.9736
▁llovió	-10.9738
▁third	-10.9738
▁confía	-10.9738
▁caballos	-10.9739
▁mathematics	-10.9739
▁generally	-10.974
▁escuchado	-10.974
▁smaller	-10.9743
▁robar	-10.9743
▁veamos	-10.9744
▁survived	-10.9744
▁beside	-10.9748
mp	-10.9758
▁conocemos	-10.976
▁artista	-10.9762
▁require	-10.9764
▁using	-10.9771
▁horses	-10.9772
▁quedamos	-10.9773
▁forest	-10.9798
▁doll	-10.9803
▁starting	-10.9806
▁hablamos	-10.9811
▁sur	-10.9816
▁disfruta	-10.9818
▁montañas	-10.9823
▁members	-10.9831
▁caer	-10.9842
▁teachers	-10.9845
z	-10.9847
▁contract	-10.9849
▁viva	-10.9863
▁estadounidenses	-10.9866
▁hurts	-10.9868
▁riesgo	-10.9892
▁termina	-10.9895
▁conferencia	-10.9906
▁abierto	-10.9909
▁hombro	-10.9911
▁invitado	-10.9916
▁ap	-10.9922
▁resultados	-10.9924
▁venta	-10.9937
ri	-10.9945
▁extranjeros	-10.9945
red	-10.995
▁pelear	-10.9953
▁h	-10.9963
01	-10.9964
ic	-10.9967
▁dará	-10.9969
▁comen	-10.9969
▁quedara	-10.9987
▁plant	-10.9999
▁push	-11.0022
▁persuade	-11.0031
▁mention	-11.0036
▁fortuna	-11.0036
▁houses	-11.0036
▁ocurrir	-11.0043
virtió	-11.0044
vés	-11.0044
▁aceptó	-11.0046
▁brown	-11.0046
▁calcetines	-11.0046
▁conversación	-11.0046
▁huyó	-11.0046
▁illegal	-11.0046
▁lincoln	-11.0046
▁maravilloso	-11.0046
▁marriage	-11.0046
▁october	-11.0046
▁octubre	-11.0046
▁pudimos	-11.0046
▁website	-11.0046
▁esperé	-11.0046
▁garage	-11.0046
▁captain	-11.0046
▁colina	-11.0046
▁couch	-11.0046
▁washington	-11.0046
▁weird	-11.0046
▁trece	-11.0046
▁traté	-11.0046
▁querido	-11.0046
▁tough	-11.0046
▁lentamente	-11.0046
▁pregúntale	-11.0046
▁credit	-11.0046
▁elección	-11.0046
▁vinieron	-11.0046
▁gracioso	-11.0047
▁saliendo	-11.0047
▁tráeme	-11.0047
▁preocupada	-11.0048
▁supuesto	-11.0048
▁regaló	-11.0048
▁perfectamente	-11.0048
▁betrayed	-11.0048
▁shelf	-11.0049
▁trabajadores	-11.0049
▁tendría	-11.0051
▁seguido	-11.0052
▁ascensor	-11.0053
▁levantarme	-11.0053
▁abandonó	-11.0053
▁original	-11.0054
▁esperemos	-11.0054
▁ayudarnos	-11.0055
▁perfectly	-11.0057
▁complained	-11.0058
▁verdadera	-11.0062
▁tratado	-11.0062
▁escriba	-11.0062
▁russian	-11.0066
▁guests	-11.0069
▁nuevamente	-11.007
▁pensado	-11.0076
▁mess	-11.0078
▁writer	-11.0084
▁fuma	-11.0084
▁workers	-11.009
▁accidents	-11.0133
▁quitar	-11.0139
▁respuestas	-11.0147
émonos	-11.0148
▁díga	-11.0164
▁imaginar	-11.0174
▁deber	-11.0185
▁gira	-11.0197
sabe	-11.0199
▁piensan	-11.0221
▁músico	-11.0226
▁emergencia	-11.0226
▁billete	-11.0232
▁disease	-11.0233
▁na	-11.0234
▁viniera	-11.0234
▁escalera	-11.0238
▁tend	-11.0247
▁ayudarle	-11.0254
▁hero	-11.0268
▁cercano	-11.0275
▁fe	-11.0282
▁shoulder	-11.0292
nse	-11.0293
▁herir	-11.0312
▁draw	-11.0313
▁sepas	-11.0315
▁changes	-11.0319
realmente	-11.032
▁pesca	-11.0326
▁supone	-11.0341
▁mentir	-11.0345
▁suggest	-11.0346
▁vende	-11.035
▁refuse	-11.0353
▁adora	-11.0358
▁pequeños	-11.0362
▁quick	-11.0364
▁licencia	-11.0365
▁brasil	-11.0368
▁anciana	-11.0368
▁capitán	-11.0368
▁evil	-11.0368
▁mundial	-11.0368
▁plata	-11.0368
▁possibility	-11.0368
▁suéter	-11.0368
▁millones	-11.0368
▁enfermera	-11.0368
▁podido	-11.0368
▁breve	-11.0368
▁regresó	-11.0368
▁curso	-11.0368
▁departamento	-11.0368
▁toalla	-11.0368
▁saliera	-11.0369
▁author	-11.0369
▁bald	-11.0369
▁embarrassed	-11.0369
▁poniendo	-11.0369
▁claramente	-11.037
▁scolded	-11.037
▁pale	-11.0371
▁salida	-11.0371
▁nearest	-11.0372
▁sort	-11.0372
▁gotten	-11.0374
▁ability	-11.0375
▁board	-11.0375
▁progress	-11.0379
▁repaired	-11.038
▁pulled	-11.0383
▁iguales	-11.0383
▁dijera	-11.0383
▁encontraste	-11.0383
▁hello	-11.0385
podés	-11.0387
▁director	-11.0391
▁borrowed	-11.0396
▁apologized	-11.0398
▁grab	-11.0403
ish	-11.0413
▁skin	-11.0416
▁jug	-11.0417
▁sore	-11.0421
▁badly	-11.0426
▁venía	-11.0429
▁ghosts	-11.0435
▁besar	-11.0454
▁toques	-11.0455
▁plu	-11.0455
▁handle	-11.0463
▁verle	-11.0515
▁salga	-11.0525
▁holidays	-11.0527
vo	-11.0535
▁schedule	-11.0549
▁cuánta	-11.056
▁intento	-11.0561
ón	-11.0563
▁boleto	-11.0565
ión	-11.0571
▁answers	-11.0592
▁estarás	-11.0621
▁co	-11.0632
▁enemigos	-11.0646
though	-11.0653
estáis	-11.0664
piensas	-11.0674
▁cre	-11.0674
▁atrap	-11.0688
▁repeat	-11.0689
▁ilegal	-11.0694
▁débil	-11.0694
▁hop	-11.0697
▁electric	-11.0701
▁advantage	-11.0701
▁agujero	-11.0701
▁apartamento	-11.0701
▁beauty	-11.0701
▁creyó	-11.0701
▁curiosidad	-11.0701
▁estupendo	-11.0701
▁exchange	-11.0701
▁otoño	-11.0701
▁retraso	-11.0701
▁toward	-11.0701
▁zoológico	-11.0701
▁dislike	-11.0701
▁value	-11.0701
▁childhood	-11.0701
▁conversar	-11.0701
▁armario	-11.0702
▁podamos	-11.0702
▁foolish	-11.0702
▁consigo	-11.0702
▁wild	-11.0702
▁acusado	-11.0702
▁master	-11.0703
▁ocultando	-11.0703
▁supper	-11.0703
▁hunting	-11.0703
▁puesta	-11.0703
▁agotado	-11.0703
▁bebiendo	-11.0703
▁everywhere	-11.0704
▁celoso	-11.0704
▁subir	-11.0705
▁detesto	-11.0705
▁estuvi	-11.0705
▁tocando	-11.0706
▁contrato	-11.0706
▁useless	-11.0707
▁esconder	-11.0707
▁graduated	-11.0708
▁vivimos	-11.071
pa	-11.0713
▁army	-11.0713
▁warned	-11.0714
▁apagó	-11.0715
▁cantó	-11.0721
▁dirá	-11.0721
▁pasajeros	-11.0722
▁esperado	-11.0723
▁falling	-11.0725
▁amigas	-11.0726
he	-11.0726
▁quedaron	-11.0731
▁vernos	-11.0733
▁nubes	-11.0735
▁italian	-11.0741
▁traveling	-11.0744
▁salvar	-11.0745
▁iría	-11.0746
▁acabar	-11.0746
▁escalar	-11.075
▁irnos	-11.076
▁fantasmas	-11.0763
dor	-11.0776
▁enfadar	-11.0776
▁norte	-11.0779
▁alimentar	-11.0793
▁solos	-11.0799
costó	-11.08
▁abandonar	-11.0803
▁paying	-11.0807
▁quedes	-11.0809
▁disculpas	-11.0817
▁nose	-11.0828
▁gasta	-11.0849
▁actuar	-11.0861
▁iron	-11.0865
▁llevan	-11.0883
▁accidentes	-11.0903
▁despedido	-11.0906
▁burn	-11.0909
▁vendría	-11.0911
▁deportes	-11.0911
▁vuelvas	-11.0912
▁olvidar	-11.0922
▁cambia	-11.0924
ment	-11.0934
▁promesas	-11.0934
▁warn	-11.0941
▁form	-11.0941
▁letra	-11.0949
▁hecha	-11.0968
▁pro	-11.0974
▁program	-11.0976
pongo	-11.0995
ni	-11.1002
▁decía	-11.1006
▁citizen	-11.1006
▁dis	-11.1008
▁experiment	-11.1016
▁repair	-11.1024
▁search	-11.1037
▁polite	-11.1044
▁consejos	-11.1045
▁11	-11.1045
▁acercó	-11.1046
▁brazil	-11.1046
▁cuestión	-11.1046
▁desperté	-11.1046
▁escenario	-11.1046
▁fortune	-11.1046
▁genius	-11.1046
▁junio	-11.1046
▁llamo	-11.1046
▁mexico	-11.1046
▁razonable	-11.1046
▁silence	-11.1046
▁unhappy	-11.1046
▁towel	-11.1046
▁soltero	-11.1046
▁velocidad	-11.1046
▁available	-11.1046
▁private	-11.1046
▁interés	-11.1046
▁sencillo	-11.1046
▁collar	-11.1046
▁condiciones	-11.1046
▁amazing	-11.1046
▁definitivamente	-11.1047
▁trapped	-11.1047
▁aproximadamente	-11.1047
▁trato	-11.1048
▁ataque	-11.1048
▁colectivo	-11.1048
▁friendship	-11.1048
▁birth	-11.1049
▁despierta	-11.1049
▁pesado	-11.1049
▁volviendo	-11.1049
▁pagado	-11.1051
▁ciencia	-11.1051
▁intentarlo	-11.1052
▁greatest	-11.1052
▁comúnmente	-11.1054
▁local	-11.1054
▁piel	-11.1056
▁dé	-11.1058
▁recoger	-11.1062
▁echo	-11.1063
▁appeared	-11.1064
▁deserted	-11.1067
▁talento	-11.1068
▁practice	-11.1068
▁impuestos	-11.1072
▁computers	-11.1072
▁novels	-11.1072
▁larger	-11.1073
▁aprendido	-11.1073
▁succeeded	-11.1074
▁cae	-11.1076
▁clouds	-11.1081
▁adonde	-11.1082
▁comprender	-11.1083
▁bello	-11.1083
▁breathe	-11.1084
▁gritar	-11.1085
mo	-11.1086
▁abrí	-11.1086
un	-11.1088
éis	-11.1096
▁depressed	-11.11
▁cleaning	-11.1101
!"	-11.1119
▁usando	-11.1123
▁nadando	-11.1125
▁stamps	-11.1128
▁names	-11.1133
▁odian	-11.1135
▁gast	-11.114
▁detuvo	-11.1141
▁seguros	-11.1149
ita	-11.1151
▁mando	-11.1162
pusieron	-11.1181
▁presentes	-11.1181
▁details	-11.1203
▁reparar	-11.1205
▁marcha	-11.1219
▁primo	-11.1221
tió	-11.1249
▁expert	-11.1255
▁relationship	-11.1261
▁echa	-11.1261
▁muchacha	-11.1262
▁rosa	-11.1264
▁lindo	-11.1267
▁cigarette	-11.1272
▁cookie	-11.1273
▁nuevas	-11.1278
▁canadienses	-11.1289
▁robo	-11.1315
▁autor	-11.1317
▁mu	-11.1319
▁presta	-11.1321
▁quedan	-11.1323
▁hacerse	-11.1335
▁gives	-11.1343
▁pe	-11.1347
¿	-11.1352
what	-11.1356
▁goal	-11.1357
▁chose	-11.1365
▁marca	-11.1374
▁jump	-11.1382
▁olvide	-11.1383
▁disturb	-11.1391
▁shock	-11.1391
▁lies	-11.1393
▁build	-11.1394
▁automóvil	-11.1396
▁engine	-11.1397
▁sudden	-11.1399
▁stomach	-11.1403
▁alcalde	-11.1403
▁arguing	-11.1403
▁basketball	-11.1403
▁crédito	-11.1403
▁enseguida	-11.1403
▁failure	-11.1403
▁impresión	-11.1403
▁lecture	-11.1403
▁ocurrido	-11.1403
▁océano	-11.1403
▁polvo	-11.1403
▁ridículo	-11.1403
▁yokohama	-11.1403
▁grateful	-11.1403
▁pleasant	-11.1403
▁violín	-11.1403
▁robbed	-11.1403
▁facebook	-11.1404
▁buried	-11.1404
▁tiró	-11.1404
▁esperanto	-11.1404
▁belleza	-11.1404
▁changing	-11.1404
▁sugirió	-11.1404
▁suicidó	-11.1404
▁peel	-11.1404
▁exhausted	-11.1404
▁moda	-11.1404
▁guapo	-11.1404
▁disappeared	-11.1405
▁despise	-11.1406
▁vosotras	-11.1406
▁pintó	-11.1407
▁nuts	-11.1408
▁cual	-11.1408
▁sentarme	-11.1409
▁fallen	-11.1409
▁tail	-11.141
▁cometió	-11.1411
▁invented	-11.1412
▁viniste	-11.1413
▁emocionado	-11.1414
▁ausente	-11.1416
▁apaga	-11.1418
▁treated	-11.1423
▁lower	-11.1427
▁ponerse	-11.1427
▁compre	-11.1429
▁queréis	-11.1433
▁disfrut	-11.1438
▁sano	-11.1445
▁sospecha	-11.1447
ías	-11.145
▁snowing	-11.1462
▁cooked	-11.1472
▁verla	-11.1476
▁starts	-11.1479
cha	-11.1484
▁sand	-11.1484
▁visiting	-11.1489
▁quedaba	-11.1496
▁productos	-11.1504
▁buses	-11.151
▁miel	-11.1519
▁inter	-11.1529
▁quejas	-11.1542
tally	-11.1546
,000	-11.1555
il	-11.1563
▁photos	-11.1566
▁viaja	-11.1572
▁ayudará	-11.1576
▁predict	-11.1604
▁dejo	-11.1608
pe	-11.1613
▁interest	-11.1616
▁material	-11.163
▁enfadada	-11.1632
▁tranquilo	-11.1632
▁termine	-11.1633
▁criminal	-11.1634
▁hábito	-11.1638
▁antiguo	-11.1639
▁altura	-11.1641
▁saving	-11.1642
ied	-11.1643
▁soldier	-11.1644
▁soldado	-11.1645
▁herida	-11.165
▁ta	-11.1655
eme	-11.1658
▁admitir	-11.166
▁tareas	-11.168
becoming	-11.169
debería	-11.173
▁cap	-11.1731
▁trabajaba	-11.1737
▁civil	-11.1746
▁guardar	-11.1747
▁señor	-11.1752
▁metal	-11.1753
▁escondi	-11.1757
▁dentist	-11.1757
▁largas	-11.1762
▁greet	-11.1763
▁steal	-11.1765
▁lift	-11.1766
▁social	-11.1766
▁baile	-11.1766
▁dificultad	-11.1767
▁suspicious	-11.1769
▁thin	-11.1773
▁votar	-11.1773
▁apoyo	-11.1774
▁aprecio	-11.1774
▁cinturón	-11.1774
▁delicioso	-11.1774
▁despertó	-11.1774
▁laptop	-11.1774
▁mirror	-11.1774
▁professor	-11.1774
▁provide	-11.1774
▁rush	-11.1774
▁ruso	-11.1774
▁picasso	-11.1774
▁bucket	-11.1774
▁complicated	-11.1774
▁méxico	-11.1774
▁battle	-11.1774
▁mintió	-11.1774
▁batalla	-11.1774
▁invitation	-11.1774
▁invitación	-11.1774
▁espejo	-11.1774
▁entendido	-11.1774
▁atrasado	-11.1774
▁molesto	-11.1775
▁gerente	-11.1775
▁recientemente	-11.1775
▁tocó	-11.1775
▁aprendiste	-11.1775
▁baffled	-11.1775
▁salvó	-11.1775
▁salario	-11.1776
▁sonreír	-11.1776
▁conseguí	-11.1776
▁adiós	-11.1777
▁science	-11.1777
▁vieron	-11.1777
▁impressed	-11.1777
▁cercana	-11.1779
▁hire	-11.178
▁vienen	-11.178
▁ruined	-11.1782
▁considerado	-11.1784
▁hablemos	-11.1784
▁visitado	-11.1786
▁jam	-11.1787
▁divorced	-11.1787
▁pushed	-11.1788
▁acting	-11.1789
▁imagen	-11.179
▁diste	-11.1793
▁ordenó	-11.18
▁prepar	-11.1804
ábamos	-11.1808
▁base	-11.182
▁devolver	-11.182
▁venden	-11.1822
ers	-11.1833
▁text	-11.1836
▁descubrir	-11.1841
▁meter	-11.1862
▁estuvieron	-11.1873
▁compañeros	-11.1887
▁maravillosa	-11.1889
▁continuar	-11.1901
▁ibas	-11.1902
▁disculpa	-11.1902
▁arms	-11.1907
ried	-11.1913
▁plantas	-11.1918
▁mismos	-11.192
▁vienes	-11.1922
▁casas	-11.1927
▁daba	-11.1931
▁arena	-11.1938
▁dulces	-11.1989
▁force	-11.1993
esta	-11.1998
zó	-11.2
▁ayudé	-11.2003
▁volví	-11.2011
▁detener	-11.2019
▁rode	-11.202
▁hopes	-11.2021
▁aspecto	-11.2022
▁extranjera	-11.2026
▁effort	-11.2026
▁pi	-11.2031
▁fines	-11.2043
▁alguno	-11.2043
▁actu	-11.2062
ion	-11.2074
law	-11.2111
▁contest	-11.2115
estoy	-11.2117
▁niñas	-11.2132
▁sabían	-11.2138
▁renunciar	-11.2141
▁improve	-11.2143
▁crash	-11.2146
▁s	-11.2151
▁defend	-11.2157
▁alfombra	-11.2158
▁audience	-11.2158
▁cierre	-11.2158
▁economy	-11.2158
▁economía	-11.2158
▁efectivo	-11.2158
▁enemies	-11.2158
▁genio	-11.2158
▁insane	-11.2158
▁lástima	-11.2158
▁mochila	-11.2158
▁opina	-11.2158
▁razones	-11.2158
▁strict	-11.2158
▁thirteen	-11.2158
▁íbamos	-11.2158
▁colgó	-11.2158
▁empecé	-11.2158
▁ugly	-11.2158
▁sensible	-11.2158
▁coward	-11.2158
▁solicitud	-11.2158
▁cima	-11.2158
▁excusa	-11.2158
▁hawaii	-11.2158
▁rieron	-11.2159
▁diary	-11.2159
▁decepcionado	-11.2159
▁ayúdame	-11.2159
▁kilómetros	-11.2159
▁entré	-11.216
▁rota	-11.216
▁nation	-11.216
▁frightened	-11.2161
▁kindness	-11.2161
▁election	-11.2161
▁anger	-11.2162
▁concentrate	-11.2162
▁shake	-11.2163
▁capaces	-11.2163
▁punished	-11.2163
▁cheated	-11.2164
▁north	-11.2166
▁sentada	-11.2167
▁intentado	-11.2169
▁deeply	-11.2171
▁capable	-11.2171
▁haremos	-11.2173
▁bebo	-11.2174
▁dentista	-11.2176
▁encendió	-11.2177
▁lean	-11.2177
▁spite	-11.2177
▁supo	-11.2178
▁trataba	-11.2179
▁saca	-11.218
▁cansados	-11.2183
▁carrie	-11.2184
▁llegaría	-11.2189
sí	-11.2192
▁drives	-11.2194
▁expresar	-11.2195
▁kissing	-11.2195
teniendo	-11.22
▁esperaré	-11.2204
▁musical	-11.2204
▁dejaría	-11.2206
▁signed	-11.2214
▁voted	-11.2215
▁alumnos	-11.2218
▁miré	-11.223
ical	-11.2245
▁wondering	-11.2247
▁quedando	-11.2253
▁burl	-11.2255
▁viaj	-11.2257
▁usado	-11.226
▁acuerdas	-11.226
▁chat	-11.2275
▁comparti	-11.232
▁leader	-11.2329
▁com	-11.233
▁esfuerzos	-11.2334
▁march	-11.2336
ante	-11.2349
ones	-11.2353
▁pill	-11.2354
▁mantiene	-11.2373
▁muertos	-11.2379
▁pañuelo	-11.2416
▁vacío	-11.2416
▁cuid	-11.2419
▁apariencia	-11.242
▁impaciente	-11.242
▁field	-11.2423
▁cerdo	-11.2424
▁hambriento	-11.2425
▁chiste	-11.2427
▁pidie	-11.2427
▁miembro	-11.2428
▁empleado	-11.2435
▁seguí	-11.2438
▁lesson	-11.244
adas	-11.2442
▁orders	-11.2444
tienen	-11.2452
▁understands	-11.2475
▁saltar	-11.2477
▁mistaken	-11.2485
▁nombres	-11.2487
quieren	-11.2508
ponía	-11.2508
ces	-11.2511
▁po	-11.2529
▁trabajado	-11.2535
▁walks	-11.2543
▁gain	-11.2547
▁lleg	-11.2548
▁cover	-11.255
▁convertir	-11.2551
▁receive	-11.2551
▁sándwich	-11.2552
▁nevar	-11.2558
▁scene	-11.2558
▁accompan	-11.2558
▁baloncesto	-11.2558
▁bienvenida	-11.2558
▁caluroso	-11.2558
▁compromiso	-11.2558
▁current	-11.2558
▁desierto	-11.2558
▁grosero	-11.2558
▁itself	-11.2558
▁piscina	-11.2558
▁ridiculous	-11.2558
▁tránsito	-11.2558
▁turkey	-11.2558
▁bound	-11.2558
▁conduciendo	-11.2558
▁desapareció	-11.2558
▁escucho	-11.2558
▁june	-11.2558
▁mercado	-11.2558
▁pepper	-11.2558
▁juez	-11.2558
▁okay	-11.2558
▁acusó	-11.2558
▁reuniones	-11.2558
▁formulario	-11.2558
▁gorda	-11.2558
▁fecha	-11.2559
▁violin	-11.2559
▁adoro	-11.2559
▁noisy	-11.2559
▁nivel	-11.2559
▁importancia	-11.2559
▁candy	-11.2559
▁villa	-11.2559
▁celular	-11.256
▁móvil	-11.256
▁exciting	-11.256
▁aumento	-11.256
▁arrestado	-11.2561
▁elected	-11.2561
▁seguida	-11.2561
▁fracaso	-11.2561
▁outfit	-11.2561
▁annoying	-11.2561
▁coser	-11.2561
▁cuyo	-11.2562
▁obviously	-11.2564
▁formas	-11.2564
▁confundido	-11.2565
▁levantado	-11.2565
▁vago	-11.2567
▁usualmente	-11.2567
▁successful	-11.2568
▁inclinó	-11.2569
▁gained	-11.2571
▁escena	-11.2573
▁firme	-11.2574
▁vain	-11.2574
▁obedecer	-11.2577
▁contain	-11.2579
▁ringing	-11.2579
▁diera	-11.26
▁trate	-11.26
▁aparte	-11.2602
▁brazos	-11.261
▁produce	-11.2625
▁empez	-11.2633
▁sleeps	-11.264
▁guarda	-11.2643
▁inform	-11.2643
ma	-11.2648
ur	-11.265
▁despedir	-11.265
▁trenes	-11.2657
▁seguía	-11.2685
▁teme	-11.2686
▁compartir	-11.2691
▁empeza	-11.2692
ive	-11.2692
imos	-11.2702
▁cancel	-11.271
▁tap	-11.2715
▁olvida	-11.2731
za	-11.2738
ue	-11.2739
▁vend	-11.2745
▁presentar	-11.2747
▁poems	-11.2747
▁plants	-11.2749
▁tomará	-11.2761
▁fotografías	-11.2763
▁mejorar	-11.2766
▁inteligentes	-11.2767
▁vase	-11.2775
▁argument	-11.2783
▁wins	-11.2797
▁acostumbrar	-11.2816
▁document	-11.2832
▁medida	-11.2837
▁cheek	-11.284
▁member	-11.2844
▁regla	-11.2845
▁m	-11.2856
▁asuntos	-11.2865
▁trabaj	-11.2874
▁suceder	-11.288
▁adapt	-11.2906
looking	-11.2927
▁charla	-11.2928
▁talent	-11.2935
▁tied	-11.294
▁sirve	-11.2941
▁model	-11.295
▁costa	-11.2951
▁señal	-11.2954
▁altos	-11.2955
éramos	-11.2956
▁interrupt	-11.2959
▁advance	-11.296
▁divorce	-11.296
▁survive	-11.296
▁prevent	-11.2963
▁gather	-11.2966
▁carga	-11.297
▁obvious	-11.2971
▁mantén	-11.2975
▁actress	-11.2975
▁anxious	-11.2975
▁basket	-11.2975
▁cuarenta	-11.2975
▁envelope	-11.2975
▁garganta	-11.2975
▁grapes	-11.2975
▁kilometers	-11.2975
▁nature	-11.2975
▁tamaño	-11.2975
▁throat	-11.2975
▁notebook	-11.2975
▁calvo	-11.2975
▁campana	-11.2975
▁naturaleza	-11.2975
▁vendré	-11.2975
▁acostumbrada	-11.2976
▁fought	-11.2976
▁cubierto	-11.2976
▁apply	-11.2977
▁seriamente	-11.2977
▁comprendo	-11.2977
▁salieron	-11.2977
▁vengo	-11.2977
▁quejando	-11.2977
ería	-11.2978
▁volando	-11.2978
▁harta	-11.2979
▁déjalo	-11.2979
▁peleando	-11.2979
▁escondido	-11.2981
▁torre	-11.2981
▁spilled	-11.2982
▁alice	-11.2984
ista	-11.2985
▁cocinando	-11.2986
▁juzgar	-11.2989
▁persuaded	-11.2996
▁staring	-11.2999
▁casarte	-11.3
▁growing	-11.3001
▁parecer	-11.3001
▁closer	-11.3003
▁notas	-11.3005
▁llamaste	-11.3006
▁encontraron	-11.3008
▁murdered	-11.3011
▁llevaré	-11.3017
▁hall	-11.303
▁comprarlo	-11.3033
▁ayudaría	-11.3034
▁miraba	-11.3034
▁llamaba	-11.3035
▁oírte	-11.3039
▁planeta	-11.3042
▁quieto	-11.3045
ty	-11.3046
▁perfecta	-11.3054
▁queja	-11.3055
▁lava	-11.3066
▁dust	-11.3077
▁knowing	-11.3081
▁cerrados	-11.3097
▁promises	-11.3131
si	-11.3148
▁sp	-11.3156
▁arregl	-11.316
ito	-11.317
▁poemas	-11.3179
▁entregar	-11.3195
probó	-11.3204
▁remembered	-11.3209
▁strangers	-11.3217
▁sales	-11.3257
▁leo	-11.3266
▁firm	-11.3267
▁desnudo	-11.3267
▁negra	-11.3267
▁alternativa	-11.327
▁opera	-11.327
▁fila	-11.3271
▁antigua	-11.3273
▁francesa	-11.3276
▁ciudadano	-11.3277
▁científico	-11.3278
▁compañero	-11.3279
▁hoja	-11.3279
▁corte	-11.328
▁regard	-11.3282
▁experto	-11.3282
biste	-11.3284
▁creen	-11.3288
arme	-11.3297
▁action	-11.3312
▁firmar	-11.3313
▁contratar	-11.3326
▁flu	-11.3328
▁equal	-11.3334
▁asegúr	-11.335
das	-11.335
▁pr	-11.3352
▁incident	-11.3353
ran	-11.3357
▁apunt	-11.336
▁existe	-11.337
▁muere	-11.3377
▁pressure	-11.3393
▁manage	-11.3395
▁crecí	-11.3396
▁witness	-11.3403
▁asia	-11.3403
▁copa	-11.3403
▁física	-11.3407
▁achieve	-11.341
▁adjust	-11.341
▁cajón	-11.341
▁conference	-11.341
▁dessert	-11.341
▁efecto	-11.341
▁embargo	-11.341
▁enciende	-11.341
▁evidence	-11.341
▁hierro	-11.341
▁inocencia	-11.341
▁percent	-11.341
▁strength	-11.341
▁bullet	-11.341
▁crisis	-11.341
▁emocionante	-11.341
▁obtuvo	-11.341
▁thick	-11.341
▁average	-11.341
▁fijamente	-11.341
▁occurred	-11.341
▁screen	-11.341
▁nevando	-11.341
▁perdiendo	-11.341
▁enojada	-11.341
▁ratón	-11.341
▁comimos	-11.341
▁complicado	-11.341
▁habitual	-11.341
▁electrónico	-11.341
▁nap	-11.3411
▁soporto	-11.3411
▁siéntate	-11.3411
▁olor	-11.3411
▁raw	-11.3412
▁patio	-11.3412
▁deshacer	-11.3412
▁reply	-11.3412
▁adorable	-11.3412
▁pesada	-11.3412
▁forgetful	-11.3412
▁cuente	-11.3413
▁command	-11.3414
▁recuerdas	-11.3414
▁newspapers	-11.3414
▁costará	-11.3415
▁muchísimo	-11.3415
▁amar	-11.3415
▁órdenes	-11.3415
▁generalmente	-11.3416
▁construyó	-11.3417
▁removed	-11.3418
▁jeans	-11.3419
▁causó	-11.3419
▁wounded	-11.3421
▁pica	-11.3421
▁mantente	-11.3421
▁llamando	-11.3422
▁concerned	-11.3423
▁regular	-11.3426
▁azules	-11.3431
▁visitors	-11.3431
▁importantes	-11.3432
▁llamarme	-11.3442
▁alma	-11.3443
▁postre	-11.3445
▁sed	-11.3451
▁bebido	-11.3453
▁león	-11.3456
▁utilizar	-11.3457
▁hola	-11.3472
▁fork	-11.3472
▁legal	-11.3479
ation	-11.348
ja	-11.3485
▁touched	-11.3486
▁cleaned	-11.35
▁suma	-11.3508
▁helps	-11.3509
▁twins	-11.3514
▁watches	-11.3514
▁however	-11.3516
▁insult	-11.3518
▁ciudades	-11.3525
▁lately	-11.3532
▁earns	-11.3537
dicó	-11.3547
▁creas	-11.3594
▁iban	-11.3599
▁comas	-11.3606
▁w	-11.3611
▁controlar	-11.3613
▁dirigi	-11.3616
dos	-11.3623
▁oblig	-11.3626
▁ga	-11.3637
▁mías	-11.3655
ventó	-11.37
▁bromas	-11.3705
▁closet	-11.3707
▁shoot	-11.3707
▁concern	-11.3709
▁limpi	-11.372
▁service	-11.3722
▁asesinado	-11.3725
▁pierde	-11.3725
▁testigo	-11.3726
▁lion	-11.3726
▁direction	-11.3729
▁juguete	-11.3731
▁cerrado	-11.3735
▁shoe	-11.3735
▁reasons	-11.3738
▁placer	-11.3739
▁alimenta	-11.3741
▁rojas	-11.3742
▁pasto	-11.3751
▁pasan	-11.3752
▁historias	-11.3758
▁planet	-11.3767
▁dudas	-11.3771
sumo	-11.3786
▁earn	-11.3786
▁terror	-11.3804
▁ricos	-11.381
capaz	-11.3816
▁facts	-11.3827
▁directo	-11.3837
▁desert	-11.3843
necesitas	-11.3844
ous	-11.3845
▁supe	-11.3846
▁disappoint	-11.3852
▁spread	-11.3854
▁cell	-11.3854
▁speed	-11.3854
▁bowl	-11.3855
▁venid	-11.3858
▁salad	-11.386
▁oficial	-11.3861
▁attract	-11.3864
▁brit	-11.3864
▁acceso	-11.3864
▁ansioso	-11.3864
▁apellido	-11.3864
▁conocimos	-11.3864
▁contrario	-11.3864
▁diamond	-11.3864
▁ejército	-11.3864
▁false	-11.3864
▁gloves	-11.3864
▁helicopter	-11.3864
▁levanto	-11.3864
▁líder	-11.3864
▁method	-11.3864
▁nonsense	-11.3864
▁politics	-11.3864
▁register	-11.3864
▁reputation	-11.3864
▁shakespeare	-11.3864
▁whale	-11.3864
▁whistle	-11.3864
▁actriz	-11.3864
▁estudió	-11.3864
▁switch	-11.3864
▁deposit	-11.3864
▁guantes	-11.3864
▁tower	-11.3864
▁instituto	-11.3864
▁explosion	-11.3864
▁adecuado	-11.3864
▁refrigerador	-11.3864
▁privado	-11.3865
▁stake	-11.3865
▁priest	-11.3865
▁poker	-11.3865
▁electricity	-11.3865
▁lightning	-11.3865
▁sunny	-11.3865
▁enamorada	-11.3865
▁suave	-11.3865
▁preferida	-11.3865
▁valla	-11.3865
▁export	-11.3865
▁obsequio	-11.3865
▁impression	-11.3865
▁lea	-11.3865
▁construir	-11.3865
▁nara	-11.3865
▁punta	-11.3865
▁condujo	-11.3865
▁adelantado	-11.3866
▁elecciones	-11.3866
▁obviamente	-11.3866
▁puppy	-11.3866
▁tiende	-11.3866
▁brillante	-11.3866
▁averg	-11.3866
▁preocuparse	-11.3866
▁prohibited	-11.3867
▁escapó	-11.3867
▁major	-11.3867
▁drawer	-11.3867
▁mandó	-11.3867
hace	-11.3867
▁cage	-11.3867
▁posición	-11.3868
▁creció	-11.3869
▁mostraré	-11.3869
▁perdone	-11.3869
▁barking	-11.387
▁destroyed	-11.387
▁terminé	-11.3871
▁pants	-11.3871
▁self	-11.3871
▁granted	-11.3872
▁dificultades	-11.3873
▁reasonable	-11.3873
▁delayed	-11.3874
▁attractive	-11.3875
▁llegues	-11.3876
▁talented	-11.3878
▁moral	-11.3879
▁canceled	-11.3879
▁uvas	-11.3881
llón	-11.3882
▁joy	-11.3895
▁modelo	-11.3895
▁fan	-11.3896
▁experimento	-11.3901
▁peanuts	-11.3905
▁pasaron	-11.3907
▁llevará	-11.3908
▁hacerle	-11.391
▁encontrarás	-11.391
ina	-11.3911
▁orejas	-11.3911
▁charged	-11.3913
po	-11.3922
▁martes	-11.3924
▁ayudado	-11.3928
▁estaremos	-11.3934
▁danced	-11.394
▁deny	-11.3943
▁comp	-11.395
▁llevara	-11.3954
▁snowed	-11.3962
▁coins	-11.3973
▁humanos	-11.3983
▁documentos	-11.3994
▁pasara	-11.4016
▁cigarettes	-11.4036
▁primos	-11.4037
▁perdonar	-11.4038
▁indica	-11.4039
yon	-11.404
▁seats	-11.404
▁total	-11.4051
▁cares	-11.407
tar	-11.4072
gue	-11.408
▁closes	-11.4084
▁presents	-11.4085
▁vano	-11.4091
▁cousins	-11.4092
▁producto	-11.4121
▁participar	-11.4131
▁upon	-11.4147
tener	-11.4155
habla	-11.4159
▁ocupa	-11.4162
▁resolvi	-11.4164
▁loan	-11.4168
▁aprende	-11.4174
▁estén	-11.4179
cu	-11.4183
▁juga	-11.4191
▁handkerchief	-11.4198
▁actual	-11.4199
▁file	-11.42
▁cosecha	-11.4202
▁regrese	-11.4203
▁plate	-11.4205
▁debt	-11.4207
▁amarilla	-11.4208
▁employee	-11.421
▁prisoner	-11.4212
▁documento	-11.4218
▁aquello	-11.4225
▁sentar	-11.4226
▁pása	-11.4258
▁planta	-11.4263
▁atrapar	-11.427
chi	-11.427
▁maneja	-11.4273
▁sings	-11.4278
yes	-11.4279
▁jobs	-11.4279
▁ocurre	-11.4283
▁ahorrar	-11.4287
ci	-11.4296
▁jugaba	-11.4301
▁vea	-11.4304
▁poet	-11.4308
ten	-11.4315
▁double	-11.4323
▁admire	-11.4329
▁spell	-11.4331
▁flat	-11.4334
▁coches	-11.4336
▁access	-11.4341
▁agradezco	-11.4341
▁aliento	-11.4341
▁ambulance	-11.4341
▁ambulancia	-11.4341
▁atentamente	-11.4341
▁baggage	-11.4341
▁concurso	-11.4341
▁ensalada	-11.4341
▁falso	-11.4341
▁families	-11.4341
▁impatient	-11.4341
▁inevitable	-11.4341
▁ladder	-11.4341
▁mordió	-11.4341
▁método	-11.4341
▁pregnant	-11.4341
▁práctica	-11.4341
▁responsabilidad	-11.4341
▁rifle	-11.4341
▁tuesday	-11.4341
▁typhoon	-11.4341
▁uñas	-11.4341
▁vecindario	-11.4341
▁voluntad	-11.4341
▁vuelvo	-11.4341
▁absence	-11.4341
▁asesino	-11.4341
▁stage	-11.4341
▁task	-11.4341
▁tesoro	-11.4341
▁temper	-11.4341
▁hidden	-11.4341
▁perdimos	-11.4341
▁package	-11.4341
▁obtener	-11.4341
▁begun	-11.4341
▁pídele	-11.4341
▁calidad	-11.4341
▁pago	-11.4341
▁lavadora	-11.4341
▁frecuentemente	-11.4341
▁discussion	-11.4341
▁electricidad	-11.4341
▁apparently	-11.4341
▁perdieron	-11.4341
▁almohada	-11.4341
▁burst	-11.4341
▁bigge	-11.4342
▁properly	-11.4342
▁cuidadosamente	-11.4342
▁continúa	-11.4342
▁muéstrame	-11.4342
▁embarazada	-11.4342
▁vendi	-11.4343
▁estalló	-11.4343
▁muerta	-11.4343
▁bordo	-11.4343
▁fluently	-11.4343
▁botas	-11.4344
▁matado	-11.4345
▁sentarse	-11.4346
▁smarter	-11.4346
▁sewing	-11.4347
▁comiste	-11.4347
▁murderer	-11.4347
▁elige	-11.4348
▁personalmente	-11.4348
▁issue	-11.4348
▁olvidaré	-11.4348
▁echado	-11.4349
▁baked	-11.435
▁confessed	-11.435
claró	-11.4352
▁served	-11.4352
▁cero	-11.4354
▁honesty	-11.4354
▁siesta	-11.4355
▁enseñarme	-11.4356
▁crossing	-11.4357
▁traduj	-11.4357
▁quietly	-11.4358
▁classmates	-11.4363
▁planted	-11.437
▁incidente	-11.4372
▁options	-11.4376
▁bala	-11.4377
▁colores	-11.4383
▁forty	-11.4388
▁degrees	-11.4396
▁repar	-11.4397
▁import	-11.4397
▁seca	-11.4407
▁causes	-11.4417
▁meters	-11.4428
▁llegara	-11.443
▁dreaming	-11.4434
▁juegos	-11.4436
▁nowhere	-11.4438
▁doubts	-11.4448
▁comentarios	-11.4455
▁monedas	-11.4455
▁wishes	-11.4457
tuve	-11.4458
▁super	-11.4459
▁weapons	-11.4461
▁presentó	-11.447
▁alérgic	-11.4476
ug	-11.4478
▁particip	-11.4493
▁aula	-11.4499
▁tantos	-11.4515
ncia	-11.4533
▁deer	-11.4546
▁roses	-11.4567
▁reporte	-11.4575
▁busqué	-11.4581
▁resulta	-11.4586
▁metros	-11.4588
▁funcionar	-11.4597
▁alcanz	-11.4607
▁quede	-11.4614
▁trabajan	-11.4622
▁cargar	-11.4632
▁amenaza	-11.4645
▁páginas	-11.4646
rme	-11.4673
ig	-11.4685
▁wound	-11.4688
▁presente	-11.4693
▁sorprende	-11.4695
▁adult	-11.4697
▁detective	-11.4698
▁dueño	-11.47
▁photograph	-11.4701
▁disponible	-11.4703
▁parecido	-11.4703
▁gallina	-11.4704
▁medicamento	-11.4704
▁mejilla	-11.4705
▁deuda	-11.4705
▁dama	-11.4707
▁político	-11.4708
▁acuerda	-11.4709
vis	-11.4715
▁callado	-11.4723
▁trains	-11.4726
▁depend	-11.4738
lu	-11.474
▁africa	-11.4746
▁canadians	-11.4749
▁aim	-11.4752
▁soñ	-11.4771
▁vives	-11.4775
▁resist	-11.4776
▁shame	-11.4779
▁americano	-11.4784
year	-11.4796
▁miente	-11.4801
▁sentados	-11.4813
▁demanda	-11.4819
▁harás	-11.4822
▁mostrar	-11.4822
▁fashion	-11.4825
▁frame	-11.4827
▁flood	-11.4828
▁nuclear	-11.4833
ísimo	-11.4836
▁fox	-11.4837
▁lujo	-11.4838
▁materna	-11.4839
▁disfraz	-11.484
▁pour	-11.484
▁capacidad	-11.484
▁obvio	-11.484
▁burglar	-11.484
▁court	-11.4841
▁amabilidad	-11.4841
▁april	-11.4841
▁arriving	-11.4841
▁ceiling	-11.4841
▁committee	-11.4841
▁césped	-11.4841
▁dieciocho	-11.4841
▁enfadó	-11.4841
▁engaged	-11.4841
▁espectáculo	-11.4841
▁evidencia	-11.4841
▁explosión	-11.4841
▁greek	-11.4841
▁harsh	-11.4841
▁hawái	-11.4841
▁heavily	-11.4841
▁impresionado	-11.4841
▁infancia	-11.4841
▁insurance	-11.4841
▁malentendido	-11.4841
▁nowadays	-11.4841
▁ocasión	-11.4841
▁opciones	-11.4841
▁outstanding	-11.4841
▁petróleo	-11.4841
▁pimienta	-11.4841
▁pleasure	-11.4841
▁political	-11.4841
▁presión	-11.4841
▁reputación	-11.4841
▁rostro	-11.4841
▁secundaria	-11.4841
▁sensitive	-11.4841
▁sociedad	-11.4841
▁society	-11.4841
▁sunglasses	-11.4841
▁terrific	-11.4841
▁además	-11.4841
▁motorcycle	-11.4841
▁fridge	-11.4841
▁jaula	-11.4841
▁jogging	-11.4841
▁ease	-11.4841
▁muriendo	-11.4841
▁importance	-11.4841
▁lucía	-11.4841
▁involucrado	-11.4841
▁boots	-11.4841
▁sabia	-11.4841
▁blackboard	-11.4841
▁cities	-11.4841
▁investigación	-11.4841
▁mentido	-11.4841
▁muero	-11.4841
▁juan	-11.4841
▁imagination	-11.4841
▁claus	-11.4841
▁imaginación	-11.4841
▁melodía	-11.4841
▁estanque	-11.4842
▁stove	-11.4842
▁bailando	-11.4842
▁autoridad	-11.4842
▁exhausto	-11.4842
▁distinguish	-11.4842
▁objeto	-11.4842
▁frankly	-11.4842
▁picante	-11.4842
▁tinta	-11.4842
▁stock	-11.4843
▁quality	-11.4843
▁elegido	-11.4843
▁bitter	-11.4843
▁interesada	-11.4843
▁entregó	-11.4843
▁professional	-11.4843
▁respirar	-11.4844
▁obligado	-11.4844
▁valuable	-11.4844
▁tejado	-11.4845
▁cuéntame	-11.4845
▁humo	-11.4845
▁taxes	-11.4845
▁apretó	-11.4845
▁propios	-11.4847
▁abril	-11.4847
▁ignoró	-11.4847
▁lección	-11.4848
▁collecting	-11.4848
▁j	-11.4848
▁treasure	-11.4849
▁sour	-11.4849
▁shouted	-11.4851
▁shorter	-11.4853
▁esquí	-11.4853
▁empezamos	-11.4853
▁separated	-11.4853
▁preparing	-11.4854
▁personally	-11.4854
▁insisted	-11.4855
▁pobres	-11.486
▁oldest	-11.486
▁hired	-11.4862
▁entraron	-11.4862
▁height	-11.4864
▁intended	-11.4865
▁podré	-11.4865
▁casarme	-11.4867
▁adopted	-11.4867
▁korean	-11.4868
▁magic	-11.487
▁places	-11.4873
estabas	-11.4874
▁solucionar	-11.4875
▁nerviosa	-11.4877
▁volumen	-11.4879
▁closely	-11.4881
▁pasaba	-11.4883
▁contarte	-11.4884
▁mandar	-11.4889
▁sabés	-11.489
▁existen	-11.489
▁fiar	-11.4891
▁busca	-11.4892
▁imagined	-11.4892
▁periódicos	-11.4894
▁solar	-11.4895
▁che	-11.4899
▁grades	-11.4899
▁scare	-11.4901
▁turistas	-11.4913
▁grados	-11.4913
▁meta	-11.4915
▁bananas	-11.4919
▁tales	-11.4927
▁cazar	-11.4929
▁dejarlo	-11.493
▁encargar	-11.4936
▁conté	-11.4937
ller	-11.4939
▁comía	-11.4939
▁alimentos	-11.4942
▁vacas	-11.4942
▁talla	-11.4948
pero	-11.4951
▁ink	-11.4957
▁amas	-11.4964
▁mires	-11.4991
▁veas	-11.5002
sal	-11.5008
side	-11.5011
▁efforts	-11.5016
▁rosas	-11.503
▁aside	-11.5057
▁extrañar	-11.506
j	-11.5066
age	-11.5088
ida	-11.5117
▁debate	-11.5118
▁claims	-11.5127
▁ignorar	-11.5128
▁pasear	-11.5138
darnos	-11.5146
▁sábados	-11.5162
▁luchar	-11.5163
▁calles	-11.5165
▁consult	-11.5173
▁unusual	-11.5177
▁prest	-11.5179
▁pop	-11.5181
▁knee	-11.5193
▁prefiere	-11.5195
▁l	-11.5197
▁tune	-11.5198
▁demand	-11.521
▁behave	-11.5211
ated	-11.5217
▁desayuna	-11.5218
illa	-11.5219
▁ríe	-11.5222
▁amarillo	-11.5224
ud	-11.5225
▁hu	-11.5226
▁appearance	-11.5227
▁zorro	-11.5227
▁pida	-11.5232
▁cabra	-11.5232
▁weapon	-11.5235
▁pide	-11.5236
▁lento	-11.5237
▁vuestros	-11.5239
cient	-11.5241
▁manda	-11.5245
▁squeeze	-11.5247
▁papers	-11.5249
▁object	-11.5252
▁humano	-11.5257
sh	-11.526
▁necesite	-11.5261
▁players	-11.5264
▁scar	-11.5272
▁éstas	-11.5275
▁protest	-11.5297
▁cómodo	-11.5303
▁faith	-11.5305
▁rate	-11.5307
eza	-11.531
▁mat	-11.5318
recuerdas	-11.5322
▁fuese	-11.5323
▁extraños	-11.5327
▁volume	-11.5327
▁tipos	-11.5335
▁decent	-11.5336
▁cough	-11.5344
▁acostar	-11.5351
▁approve	-11.5352
▁ca	-11.5353
▁poison	-11.5354
ear	-11.5354
▁oso	-11.5355
▁sweat	-11.5356
▁pack	-11.5357
▁blow	-11.5357
▁lastimar	-11.5359
▁profesional	-11.5359
▁angel	-11.536
▁unexpected	-11.5362
▁hug	-11.5363
▁servir	-11.5363
▁pruebas	-11.5367
▁occasion	-11.5367
▁adicto	-11.5367
▁apoyó	-11.5367
▁comité	-11.5367
▁confesó	-11.5367
▁embajada	-11.5367
▁embassy	-11.5367
▁encender	-11.5367
▁engañó	-11.5367
▁entrance	-11.5367
▁estudié	-11.5367
▁festival	-11.5367
▁hoax	-11.5367
▁izquierdo	-11.5367
▁knowledge	-11.5367
▁maestra	-11.5367
▁martillo	-11.5367
▁ocurra	-11.5367
▁paliza	-11.5367
▁pizarra	-11.5367
▁retrasó	-11.5367
▁rough	-11.5367
▁sombra	-11.5367
▁target	-11.5367
▁temporada	-11.5367
▁tifón	-11.5367
▁unfair	-11.5367
▁universe	-11.5367
▁universo	-11.5367
▁upstairs	-11.5367
▁época	-11.5367
▁ausencia	-11.5367
▁conceited	-11.5367
▁drew	-11.5367
▁pagué	-11.5367
▁policy	-11.5367
▁almorzando	-11.5367
▁sheep	-11.5367
▁coraje	-11.5367
▁egoísta	-11.5367
▁mystery	-11.5367
▁soft	-11.5367
▁competition	-11.5367
▁coincidence	-11.5367
▁habitaciones	-11.5367
▁selfish	-11.5367
▁replace	-11.5367
▁swear	-11.5367
▁scenery	-11.5367
▁rio	-11.5367
▁educado	-11.5367
▁cigarro	-11.5367
▁presence	-11.5368
▁permitido	-11.5368
▁carpet	-11.5368
▁enséñame	-11.5368
▁scratch	-11.5368
▁advirtió	-11.5368
▁comparto	-11.5368
▁babbling	-11.5368
▁descubierto	-11.5368
▁reina	-11.5368
▁honestidad	-11.5368
▁decidieron	-11.5368
▁hundió	-11.5368
▁level	-11.5368
▁row	-11.5368
▁salgo	-11.5369
▁caminó	-11.5369
▁muro	-11.5369
▁fortunately	-11.5369
▁actualmente	-11.537
▁cheaper	-11.537
▁sonriendo	-11.537
▁restless	-11.537
▁soul	-11.5371
▁partió	-11.5371
▁progreso	-11.5371
▁metido	-11.5372
▁arrojó	-11.5372
▁barba	-11.5372
▁suitable	-11.5373
▁saqué	-11.5373
▁dating	-11.5374
▁caminaba	-11.5374
▁product	-11.5376
▁oeste	-11.5376
▁sweating	-11.5376
▁mostrarte	-11.5377
▁bowed	-11.5377
▁rescued	-11.5377
▁fairly	-11.5378
▁miraron	-11.5379
▁addict	-11.538
▁despertador	-11.5382
▁disparar	-11.5382
▁framed	-11.5383
▁shocked	-11.5385
▁marchó	-11.5386
▁sigo	-11.5395
▁disfrutar	-11.5396
▁manners	-11.5399
▁income	-11.54
▁quarter	-11.5402
▁quejó	-11.5402
▁rented	-11.5403
▁quemó	-11.5404
▁ayudando	-11.5406
▁herramientas	-11.5407
▁pagaré	-11.5408
nzó	-11.5413
▁serás	-11.5417
▁applie	-11.542
▁mancha	-11.542
▁chosen	-11.5427
▁sellos	-11.5427
▁pesa	-11.5429
▁posee	-11.5433
how	-11.5437
▁rely	-11.5437
▁r	-11.5446
▁leerlo	-11.545
▁acción	-11.545
▁gemelos	-11.545
▁preciosa	-11.5456
▁cows	-11.5457
▁derechos	-11.5459
▁terms	-11.5461
cated	-11.5469
▁reunir	-11.5469
▁serpientes	-11.5472
▁snakes	-11.5472
▁normas	-11.548
▁alcanza	-11.5481
▁parking	-11.5489
▁lit	-11.5499
▁grown	-11.5507
▁regalar	-11.5509
▁cu	-11.5509
▁permanecer	-11.5516
bo	-11.5519
▁sonando	-11.5527
▁americanos	-11.5527
▁científicos	-11.553
ch	-11.5531
ico	-11.5541
▁lados	-11.5568
▁lucha	-11.5574
ros	-11.5592
ance	-11.5593
▁canal	-11.5593
ho	-11.5603
▁cor	-11.5611
▁gustado	-11.5631
elo	-11.5658
esa	-11.5666
▁bat	-11.5669
▁fueras	-11.5694
one	-11.5698
áramos	-11.57
▁mata	-11.5705
▁recibi	-11.5724
▁prob	-11.5728
aking	-11.5738
▁tru	-11.5738
▁piense	-11.5748
cantaría	-11.5754
▁ruin	-11.5757
zo	-11.5758
▁colors	-11.5759
▁coin	-11.5759
v	-11.5769
qui	-11.5775
▁furioso	-11.5776
▁bribe	-11.5776
▁dim	-11.5779
▁religion	-11.578
▁suggestion	-11.578
▁cobarde	-11.5782
▁pluma	-11.5783
▁flag	-11.5784
▁cuento	-11.5785
▁guardia	-11.5786
▁custom	-11.5786
▁sordo	-11.5786
▁viera	-11.5787
▁piloto	-11.5788
▁curtain	-11.5788
▁rodilla	-11.5789
▁encuentre	-11.5789
▁cigarrillo	-11.5789
▁tourist	-11.579
▁moneda	-11.579
▁comentario	-11.579
▁stamp	-11.5792
▁oscura	-11.5792
▁volvería	-11.5792
▁twin	-11.58
▁sucio	-11.5806
▁design	-11.5807
▁oppose	-11.581
arte	-11.582
▁fi	-11.582
▁edi	-11.5827
▁budge	-11.5831
▁aterriz	-11.5832
▁revis	-11.5842
che	-11.5851
▁llegas	-11.5855
▁memorize	-11.5859
oso	-11.5859
▁arruin	-11.5861
▁ke	-11.5862
▁corrí	-11.5866
ellos	-11.5869
▁botellas	-11.587
mail	-11.5873
▁agradeci	-11.5874
▁cocin	-11.5881
▁odiaba	-11.5882
▁resultar	-11.5886
▁invent	-11.5886
▁bottles	-11.5893
▁apunta	-11.5904
▁increase	-11.5907
▁gane	-11.5916
▁triunfar	-11.5917
▁brand	-11.5919
▁gentil	-11.5919
▁prince	-11.5921
▁central	-11.5922
▁limít	-11.5922
▁automobile	-11.5922
▁biblia	-11.5922
▁california	-11.5922
▁cottage	-11.5922
▁cuaderno	-11.5922
▁deliciosa	-11.5922
▁despedida	-11.5922
▁diecisiete	-11.5922
▁francisco	-11.5922
▁funcionó	-11.5922
▁gasolina	-11.5922
▁hockey	-11.5922
▁inconsciente	-11.5922
▁innocence	-11.5922
▁instructions	-11.5922
▁juicio	-11.5922
▁mouse	-11.5922
▁oigo	-11.5922
▁oxygen	-11.5922
▁oxígeno	-11.5922
▁promotion	-11.5922
▁química	-11.5922
▁regreso	-11.5922
▁resort	-11.5922
▁rusia	-11.5922
▁tabaco	-11.5922
▁unreliable	-11.5922
▁vestida	-11.5922
▁seventeen	-11.5922
▁suceda	-11.5922
▁apology	-11.5922
▁parcial	-11.5922
▁flour	-11.5922
▁pillow	-11.5923
▁cálido	-11.5923
▁deprimido	-11.5923
▁merecía	-11.5923
▁mutuamente	-11.5923
▁trunk	-11.5923
▁reducir	-11.5923
▁kobe	-11.5923
▁discutiendo	-11.5923
▁brief	-11.5923
▁periodista	-11.5923
▁hugged	-11.5923
▁silver	-11.5923
▁tinto	-11.5923
▁batería	-11.5923
▁wide	-11.5923
▁repentinamente	-11.5923
▁observando	-11.5923
▁juguemos	-11.5923
▁dormida	-11.5923
▁safety	-11.5924
▁sugiero	-11.5924
▁spade	-11.5924
▁drowning	-11.5924
▁contraseña	-11.5924
▁arrepiento	-11.5924
▁password	-11.5924
▁hammer	-11.5924
▁revés	-11.5924
▁bible	-11.5925
▁bleeding	-11.5925
▁partida	-11.5925
▁incómodo	-11.5925
▁soap	-11.5925
▁caído	-11.5925
▁threatened	-11.5926
▁saque	-11.5926
▁áfrica	-11.5927
▁instrucciones	-11.5927
▁abandonado	-11.5927
▁optimista	-11.5927
▁released	-11.5927
▁disguised	-11.5928
▁pretendía	-11.5928
▁afortunadamente	-11.593
▁treaty	-11.5931
▁santa	-11.5932
▁arrogante	-11.5933
▁salgamos	-11.5934
▁decile	-11.5934
▁everest	-11.5937
leaned	-11.5937
▁jugadores	-11.5938
▁burning	-11.5938
▁approved	-11.5939
▁fuertes	-11.5939
▁riendo	-11.594
▁suffering	-11.594
dical	-11.5941
▁estacionar	-11.5941
construido	-11.5943
▁computadores	-11.5945
▁logro	-11.5945
▁senté	-11.5956
▁decente	-11.5957
▁kilos	-11.5957
▁moderna	-11.5958
cogí	-11.5959
▁cómoda	-11.5961
▁poeta	-11.5961
▁feo	-11.5965
▁evento	-11.5966
▁informed	-11.5968
▁sabor	-11.597
▁respond	-11.5971
▁labios	-11.5971
▁yendo	-11.5973
▁trabajamos	-11.5978
▁celebrate	-11.5985
▁supplies	-11.5988
▁incorrecta	-11.5991
iz	-11.5995
▁pasaría	-11.5997
▁decirlo	-11.6003
▁discuti	-11.6017
▁considerar	-11.6018
▁pasarme	-11.6018
▁saludó	-11.6023
▁comprarse	-11.6024
▁conejos	-11.6034
cer	-11.6038
eligió	-11.6051
▁painful	-11.6052
▁tourists	-11.6057
▁chances	-11.6058
▁fate	-11.6059
▁products	-11.6063
▁necesites	-11.6065
▁decepcionar	-11.6074
▁divorci	-11.6092
▁sabías	-11.6094
pidieron	-11.6105
▁dependen	-11.6108
▁extranjeras	-11.6119
▁superar	-11.6132
▁ba	-11.6134
▁abandon	-11.6151
▁imp	-11.6161
tado	-11.6164
▁abuse	-11.6219
▁consume	-11.6229
old	-11.6231
▁cultura	-11.6237
▁hoped	-11.6264
▁considera	-11.627
dando	-11.627
▁permit	-11.6272
▁muchachos	-11.6275
endo	-11.6281
▁aprobar	-11.6284
▁acabas	-11.6294
▁entradas	-11.6298
▁owner	-11.6299
▁encuentras	-11.6306
▁mentiras	-11.6309
▁stepp	-11.6318
▁bi	-11.6327
where	-11.6329
▁scream	-11.6341
▁tire	-11.6345
▁damage	-11.6355
▁pilot	-11.6357
▁gu	-11.6358
▁misterio	-11.6363
▁culture	-11.6364
▁divertida	-11.6364
▁reservation	-11.6365
vamos	-11.6366
▁clara	-11.6366
▁helicóptero	-11.6368
▁wheel	-11.637
▁sujeto	-11.637
▁bandera	-11.6371
▁belt	-11.6372
▁cliente	-11.6379
▁familias	-11.6381
▁dollar	-11.6389
▁lu	-11.639
▁italiano	-11.6398
▁fuente	-11.64
▁permaneci	-11.6402
▁roll	-11.6405
▁resign	-11.6418
su	-11.6432
▁suicidar	-11.6434
ria	-11.6445
sumí	-11.6454
▁puñ	-11.6459
queréis	-11.6462
tenéis	-11.6463
▁russia	-11.6471
five	-11.6472
▁gifts	-11.648
▁pray	-11.6485
▁state	-11.649
▁separate	-11.6491
▁malos	-11.6499
▁lent	-11.6499
▁delay	-11.65
▁habilidad	-11.6504
ng	-11.6504
je	-11.6504
▁thorough	-11.6506
zco	-11.6506
▁busc	-11.6507
▁wealth	-11.6507
▁shout	-11.6508
▁rápida	-11.6508
▁affect	-11.6511
▁aburrida	-11.6511
▁actitud	-11.6511
▁anteojos	-11.6511
▁attitude	-11.6511
▁autumn	-11.6511
▁auténtico	-11.6511
▁cedió	-11.6511
▁challenge	-11.6511
▁conjunto	-11.6511
▁desastre	-11.6511
▁desierta	-11.6511
▁downstairs	-11.6511
▁eighteen	-11.6511
▁estilo	-11.6511
▁financial	-11.6511
▁halloween	-11.6511
▁horario	-11.6511
▁hunch	-11.6511
▁journalist	-11.6511
▁junk	-11.6511
▁ketchup	-11.6511
▁lastimó	-11.6511
▁lápices	-11.6511
▁narrow	-11.6511
▁opposite	-11.6511
▁promedio	-11.6511
▁príncipe	-11.6511
▁scissors	-11.6511
▁screw	-11.6511
▁statue	-11.6511
▁stubborn	-11.6511
▁traicionó	-11.6511
▁pálido	-11.6511
▁sensación	-11.6511
▁zona	-11.6511
▁desaparecido	-11.6511
▁flashlight	-11.6511
▁falleció	-11.6511
▁honey	-11.6511
▁slam	-11.6511
▁stomachache	-11.6511
▁atento	-11.6511
▁empiece	-11.6511
▁department	-11.6511
▁reduce	-11.6511
▁dozen	-11.6511
▁pozo	-11.6511
▁purse	-11.6511
▁sirvió	-11.6511
▁pipe	-11.6511
▁antig	-11.6511
▁nearby	-11.6511
▁further	-11.6511
▁authority	-11.6511
▁estantería	-11.6511
▁eyesight	-11.6511
▁tóma	-11.6511
▁soltera	-11.6511
▁remarkable	-11.6511
▁robando	-11.6511
▁operation	-11.6512
▁harina	-11.6512
▁admiro	-11.6512
▁acondicionado	-11.6512
▁confidence	-11.6512
▁rejected	-11.6513
▁soñando	-11.6513
▁informado	-11.6513
▁construcción	-11.6513
▁happier	-11.6513
▁quejarse	-11.6513
▁atravesó	-11.6514
▁appetite	-11.6514
▁pavo	-11.6514
▁square	-11.6514
▁planned	-11.6514
▁respira	-11.6515
▁ciertamente	-11.6516
▁actúa	-11.6516
▁pido	-11.6517
▁lotería	-11.6518
▁boiling	-11.6518
▁mostrarme	-11.6518
▁condición	-11.6518
▁proof	-11.6518
▁defense	-11.6519
▁explicarlo	-11.6519
▁secó	-11.6519
▁invitaron	-11.6519
▁swam	-11.6519
▁muestra	-11.652
▁desgracia	-11.6523
▁siguieron	-11.6523
▁painter	-11.6523
▁screamed	-11.6523
▁cogido	-11.6524
▁logró	-11.6526
▁mataron	-11.6528
▁enseñaré	-11.6528
▁sobrevivir	-11.6529
▁dominar	-11.653
▁cave	-11.653
king	-11.653
▁pasaste	-11.6531
▁naturales	-11.6532
▁comparado	-11.6534
▁responde	-11.6535
▁cochera	-11.6536
▁resistir	-11.6536
▁participate	-11.6541
▁lloverá	-11.6541
▁gastos	-11.6542
▁tonta	-11.6544
▁asientos	-11.6544
▁insistió	-11.6547
▁adivina	-11.6552
▁avoided	-11.6553
▁utiliza	-11.6555
▁oye	-11.6556
▁ponerme	-11.6557
▁aparcar	-11.6557
▁crowded	-11.6559
▁officer	-11.6563
▁apetece	-11.6564
▁checked	-11.6567
▁estudias	-11.657
▁uniforme	-11.6574
▁guns	-11.6575
▁hijas	-11.6576
▁comete	-11.6577
▁tiro	-11.6577
▁heater	-11.658
▁worrying	-11.6582
▁barber	-11.6583
▁breaking	-11.6587
▁nodded	-11.659
▁completa	-11.6592
▁assure	-11.6599
▁daría	-11.6606
aciones	-11.6619
voted	-11.662
▁foreigners	-11.6622
▁trabajas	-11.6623
▁cabe	-11.6628
▁aman	-11.6636
▁adultos	-11.6639
▁clientes	-11.6647
aban	-11.665
▁juegan	-11.665
▁tires	-11.6655
▁encontrarte	-11.6661
▁knees	-11.6662
▁amarillas	-11.6678
▁osos	-11.6681
▁lamp	-11.6704
ados	-11.6705
pueden	-11.6707
▁lovely	-11.671
▁chistes	-11.6712
tiendo	-11.6715
tenemos	-11.6718
▁prepara	-11.6723
ized	-11.6729
tir	-11.6729
pi	-11.6732
ín	-11.6751
▁salgas	-11.6754
▁pasas	-11.6756
vi	-11.6762
eh	-11.678
▁colecciona	-11.6785
▁pages	-11.6802
▁molestar	-11.6803
▁lead	-11.6817
▁encantador	-11.6825
▁meals	-11.6825
▁understanding	-11.6828
▁logr	-11.6829
▁ocupar	-11.6836
ismo	-11.6841
▁alegre	-11.685
▁bolsillos	-11.6852
▁west	-11.6868
▁pockets	-11.6868
▁revistas	-11.6869
▁encantado	-11.687
▁cura	-11.6875
▁consigue	-11.6876
▁magazines	-11.6877
▁maletas	-11.6885
▁norma	-11.6905
▁vayan	-11.6907
▁dare	-11.6908
▁pencils	-11.6918
▁cups	-11.694
podé	-11.6958
▁lamenta	-11.6972
▁realizar	-11.6975
▁advis	-11.6978
▁asustar	-11.6981
▁sugerencia	-11.6989
▁confuso	-11.6994
▁pesadilla	-11.6997
▁brain	-11.6999
▁cortina	-11.7002
▁doctors	-11.7004
▁cheque	-11.7004
▁ghost	-11.7005
▁detalle	-11.7005
▁compara	-11.701
▁adulto	-11.7014
▁fu	-11.7017
▁violent	-11.7017
▁mono	-11.7026
▁mission	-11.703
▁detenido	-11.7034
cierto	-11.7061
▁bebí	-11.7062
vy	-11.7064
▁ayudes	-11.7066
eras	-11.7076
ará	-11.7087
sabés	-11.7087
▁owes	-11.7087
tendré	-11.7087
▁entendí	-11.7093
▁evit	-11.7099
ustedes	-11.7106
▁collect	-11.7113
▁hesitate	-11.712
▁origin	-11.7121
ula	-11.7123
▁faint	-11.7123
▁confess	-11.7123
▁borde	-11.7124
▁quarrel	-11.7125
▁superior	-11.7128
▁tenedor	-11.7128
▁comercial	-11.7128
▁ángel	-11.7129
▁convenient	-11.7131
▁spli	-11.7134
▁profunda	-11.7134
▁veneno	-11.7135
▁spot	-11.7135
▁tranquila	-11.7135
▁conscious	-11.7135
tacó	-11.7136
▁aceite	-11.7136
▁acepto	-11.7136
▁album	-11.7136
▁apetito	-11.7136
▁application	-11.7136
▁cafetería	-11.7136
▁cambié	-11.7136
▁ciega	-11.7136
▁clásica	-11.7136
▁complex	-11.7136
▁conocieron	-11.7136
▁conseguido	-11.7136
▁decírselo	-11.7136
▁desmayó	-11.7136
▁determine	-11.7136
▁disculpó	-11.7136
▁duermo	-11.7136
▁eléctrica	-11.7136
▁excepcional	-11.7136
▁garbage	-11.7136
▁grifo	-11.7136
▁independiente	-11.7136
▁international	-11.7136
▁january	-11.7136
▁ladrones	-11.7136
▁lectura	-11.7136
▁ligero	-11.7136
▁linterna	-11.7136
▁luggage	-11.7136
▁mobile	-11.7136
▁mínimo	-11.7136
▁narita	-11.7136
▁necesaria	-11.7136
▁pajamas	-11.7136
▁patinar	-11.7136
▁physics	-11.7136
▁pánico	-11.7136
▁religión	-11.7136
▁repugnante	-11.7136
▁research	-11.7136
▁responsibility	-11.7136
▁rising	-11.7136
▁rompecabezas	-11.7136
▁siguiendo	-11.7136
▁simpático	-11.7136
▁translation	-11.7136
▁trigger	-11.7136
▁veloz	-11.7136
▁vencido	-11.7136
▁virus	-11.7136
▁vídeo	-11.7136
▁corriente	-11.7136
▁recién	-11.7136
▁infantil	-11.7136
▁quíta	-11.7136
▁amusing	-11.7136
▁disaster	-11.7136
▁typical	-11.7136
▁apague	-11.7136
▁assistant	-11.7136
▁vegetales	-11.7136
▁acciones	-11.7136
▁estatua	-11.7136
▁coincidencia	-11.7136
▁desperate	-11.7136
▁pink	-11.7136
▁láv	-11.7136
▁resuelto	-11.7136
▁lavó	-11.7136
▁cocinero	-11.7136
▁almorzamos	-11.7136
▁fog	-11.7136
▁pintor	-11.7136
▁aparentemente	-11.7136
▁palace	-11.7136
▁datos	-11.7136
▁frog	-11.7136
▁communicate	-11.7136
▁ebrio	-11.7136
▁crema	-11.7136
▁desocupado	-11.7136
▁secretary	-11.7136
▁lenguaje	-11.7137
▁poquito	-11.7137
▁pasaje	-11.7137
▁comenzado	-11.7137
▁sink	-11.7137
▁treatment	-11.7137
▁gripe	-11.7137
▁directamente	-11.7137
▁salimos	-11.7137
▁tratamiento	-11.7137
▁dibujo	-11.7137
▁strike	-11.7137
▁exitoso	-11.7137
▁"¡	-11.7137
▁hatred	-11.7137
▁bush	-11.7137
▁salón	-11.7137
▁impedir	-11.7137
▁thrilled	-11.7138
▁drowned	-11.7138
▁librería	-11.7139
▁flow	-11.7139
▁visible	-11.7139
▁revel	-11.7139
▁punctual	-11.714
▁encouraged	-11.714
▁subiendo	-11.714
▁incorrecto	-11.714
▁alegría	-11.7141
▁astuto	-11.7141
▁path	-11.7141
▁continuó	-11.7141
▁sentamos	-11.7142
▁cheered	-11.7142
▁enseñando	-11.7142
▁warmer	-11.7143
▁cheating	-11.7144
▁barrio	-11.7144
▁gastado	-11.7144
▁divorcio	-11.7145
▁practical	-11.7146
▁mudó	-11.7146
▁loudly	-11.7146
▁balde	-11.7147
um	-11.7147
▁crush	-11.7147
▁deceived	-11.7148
▁retired	-11.7148
▁lottery	-11.7148
▁fainted	-11.7148
▁recursos	-11.7149
▁sandwiches	-11.715
▁mezcla	-11.715
▁float	-11.7151
▁comamos	-11.7151
▁border	-11.7152
▁sincera	-11.7152
▁reconocí	-11.7153
▁damaged	-11.7154
▁misión	-11.7155
▁yard	-11.7155
▁crashed	-11.7156
▁busco	-11.7156
▁climbing	-11.7159
▁improved	-11.7161
pr	-11.7162
▁tela	-11.7162
todos	-11.7163
▁career	-11.7163
▁hundreds	-11.7163
▁preguntando	-11.7164
▁cultiva	-11.7165
▁preguntarte	-11.7165
▁respetar	-11.7166
▁mire	-11.7166
▁insectos	-11.7166
▁conocerte	-11.7167
▁fea	-11.7168
▁sudando	-11.7168
▁enojar	-11.7172
▁latest	-11.7177
▁papeles	-11.7179
▁daughters	-11.7198
▁cumple	-11.7199
▁rainy	-11.72
▁consecuencias	-11.7201
▁aquél	-11.7201
▁trabajador	-11.7204
▁estate	-11.7209
▁ideal	-11.7214
▁creemos	-11.7215
▁compraron	-11.7218
▁beard	-11.722
▁comb	-11.7224
▁mirá	-11.7232
▁tigers	-11.7236
▁lobos	-11.7245
▁dejas	-11.7261
▁blamed	-11.7278
▁seated	-11.7282
▁enero	-11.7288
▁cigarrillos	-11.7288
▁pienses	-11.7289
manded	-11.7293
▁políticos	-11.7306
▁juguetes	-11.7323
▁sienten	-11.733
▁documents	-11.7341
▁lawn	-11.7354
misunderstanding	-11.7363
▁juntar	-11.7371
▁ref	-11.7384
▁letras	-11.7385
▁asegur	-11.7394
▁seria	-11.7395
▁showing	-11.7399
▁vasos	-11.7401
gó	-11.7406
▁pis	-11.7424
▁listens	-11.743
ica	-11.7448
op	-11.7452
▁aguantar	-11.7467
▁caus	-11.747
ke	-11.7479
▁stones	-11.7482
x	-11.7483
▁llaman	-11.7515
▁dejá	-11.7532
▁derram	-11.7533
▁tapa	-11.7545
▁toque	-11.7546
▁lanza	-11.7549
▁limpias	-11.7562
▁cds	-11.7577
▁llamadas	-11.7608
▁anterior	-11.7611
▁asusta	-11.7647
▁segundos	-11.7652
▁universitario	-11.7656
▁ventaja	-11.7656
▁fresca	-11.7656
▁mosquito	-11.7659
▁barata	-11.766
▁liber	-11.766
▁falsa	-11.766
▁prima	-11.766
▁sonríe	-11.766
▁source	-11.766
▁odd	-11.7661
▁conocimiento	-11.7662
▁ciervo	-11.7662
▁corté	-11.7664
out	-11.7665
▁conozca	-11.7667
▁pedazo	-11.7668
▁politician	-11.7668
▁prisionero	-11.7668
▁voluntario	-11.7669
▁rabbit	-11.7669
▁sienta	-11.7669
▁conejo	-11.767
▁serpiente	-11.767
▁snake	-11.767
▁alimento	-11.7679
▁quema	-11.7681
▁traiga	-11.769
▁bears	-11.7696
▁interior	-11.7697
▁tuyos	-11.7706
▁quita	-11.7716
▁vaca	-11.7717
▁horror	-11.7722
edades	-11.7734
▁firma	-11.7738
▁preocupados	-11.7742
▁loose	-11.7747
▁qui	-11.7747
▁temer	-11.7748
▁cen	-11.7749
▁ours	-11.7753
shirt	-11.7754
thirty	-11.7754
ahora	-11.7755
▁caza	-11.7757
▁serve	-11.7758
handed	-11.776
vale	-11.7763
▁pusi	-11.7763
▁astronaut	-11.7765
soy	-11.7768
▁reunió	-11.7771
▁vueltas	-11.7772
▁mark	-11.7774
▁falls	-11.778
▁despertado	-11.7783
▁mas	-11.7785
han	-11.7786
▁insist	-11.7793
▁escolar	-11.7797
▁skate	-11.7798
▁absolute	-11.7798
▁trigo	-11.7799
▁demostrar	-11.7799
▁negar	-11.7799
scribió	-11.7801
▁dish	-11.7802
▁sírva	-11.7802
▁aprobado	-11.7802
▁asintió	-11.7802
▁circumstances	-11.7802
▁delegate	-11.7802
▁escrita	-11.7802
▁exámenes	-11.7802
▁forehead	-11.7802
▁frigorífico	-11.7802
▁gatillo	-11.7802
▁glance	-11.7802
▁handwriting	-11.7802
▁húmedo	-11.7802
▁independent	-11.7802
▁intérprete	-11.7802
▁médica	-11.7802
▁niebla	-11.7802
▁ochenta	-11.7802
▁ordinary	-11.7802
▁popcorn	-11.7802
▁purchase	-11.7802
▁recomendó	-11.7802
▁riqueza	-11.7802
▁rotten	-11.7802
▁stool	-11.7802
▁surprising	-11.7802
▁thumb	-11.7802
▁timbre	-11.7802
▁toothpaste	-11.7802
▁universal	-11.7802
▁volleyball	-11.7802
▁withdraw	-11.7802
▁wolves	-11.7802
▁álbum	-11.7802
▁audiencia	-11.7802
▁fierce	-11.7802
▁haircut	-11.7802
▁silk	-11.7802
▁atractiva	-11.7802
▁culpo	-11.7802
▁pésimo	-11.7802
▁sesenta	-11.7802
▁romantic	-11.7802
▁heladera	-11.7802
▁palacio	-11.7802
▁sake	-11.7802
▁aguanto	-11.7802
▁bici	-11.7802
▁punishment	-11.7802
▁underestimate	-11.7803
▁stew	-11.7803
▁renunció	-11.7803
▁princesa	-11.7803
▁magia	-11.7803
▁alquiler	-11.7803
▁breed	-11.7803
▁volvamos	-11.7803
▁wings	-11.7803
▁escaso	-11.7803
▁bookstore	-11.7803
▁amazed	-11.7803
▁otherwise	-11.7803
▁casco	-11.7803
▁comieron	-11.7803
▁silly	-11.7803
▁internacional	-11.7803
▁powerful	-11.7803
▁investigando	-11.7803
▁bow	-11.7803
▁esperábamos	-11.7803
▁wheat	-11.7803
▁secretos	-11.7804
▁practicing	-11.7804
▁published	-11.7804
▁national	-11.7804
▁nevó	-11.7804
▁reconoció	-11.7804
▁delgado	-11.7804
▁cloudy	-11.7804
▁harvest	-11.7804
▁princess	-11.7804
▁micro	-11.7804
▁coal	-11.7804
▁prometido	-11.7805
▁mencionó	-11.7805
▁charlar	-11.7805
▁oven	-11.7805
▁sucedido	-11.7805
▁preocuparme	-11.7806
▁decidiste	-11.7806
▁beans	-11.7806
▁cumplió	-11.7807
▁scary	-11.7807
▁invité	-11.7807
▁difficulties	-11.7807
▁sinceramente	-11.7807
▁track	-11.7808
▁sorprendería	-11.7808
▁recuperó	-11.7808
▁active	-11.7808
▁preparada	-11.7808
▁perderás	-11.7808
▁llegada	-11.7809
▁bajando	-11.7809
▁golden	-11.7809
▁enamoró	-11.781
▁disco	-11.781
▁camping	-11.7811
▁grito	-11.7811
▁buscaba	-11.7811
▁ganando	-11.7811
▁cumplido	-11.7812
▁distract	-11.7812
▁tercera	-11.7812
▁conducta	-11.7814
▁agudo	-11.7814
▁insects	-11.7817
▁unknown	-11.7817
▁tijeras	-11.7817
▁bola	-11.7817
▁infeliz	-11.7818
▁higher	-11.7821
▁insulted	-11.7825
▁resources	-11.7826
▁admired	-11.7826
▁ahorros	-11.7826
▁contestó	-11.7827
▁llevé	-11.7828
▁minor	-11.7828
▁dancer	-11.7829
▁llamaron	-11.7831
▁normally	-11.7833
▁remains	-11.7833
▁palo	-11.7834
▁rió	-11.7834
▁cambiará	-11.7834
▁salvajes	-11.7835
▁alérgica	-11.7835
▁señora	-11.784
▁astronauta	-11.784
▁relaxed	-11.7843
▁nerves	-11.7844
▁ayudarla	-11.7845
▁wipe	-11.7846
▁entiendes	-11.7847
▁instante	-11.7852
▁lips	-11.7854
▁intentes	-11.7856
up	-11.786
ame	-11.7861
▁avisar	-11.7862
▁leyes	-11.7874
▁deserved	-11.7875
▁balance	-11.7876
▁entendería	-11.7876
▁cast	-11.7882
▁momentos	-11.7886
▁trescient	-11.79
▁tigres	-11.79
▁veras	-11.7905
▁influencia	-11.7905
tando	-11.7906
▁vais	-11.7907
▁ayudaré	-11.7908
▁sucede	-11.791
▁budget	-11.7914
you	-11.7915
▁streets	-11.7915
▁alquilar	-11.7917
▁veros	-11.7917
aje	-11.7918
▁terminará	-11.7919
▁content	-11.7921
▁velas	-11.7921
▁humana	-11.7923
hi	-11.7924
▁rojos	-11.7924
rían	-11.793
▁sientas	-11.7937
▁rabbits	-11.7937
▁nails	-11.794
▁reads	-11.7941
▁fle	-11.7943
▁cortinas	-11.7947
▁abus	-11.796
▁beg	-11.797
▁adults	-11.7984
▁esperara	-11.7985
▁prefieres	-11.7988
led	-11.7988
▁interesantes	-11.7996
▁cancelar	-11.8005
▁atropell	-11.801
▁regards	-11.8013
▁sangra	-11.8014
▁k	-11.8017
▁pa	-11.8025
▁llora	-11.8028
▁stops	-11.804
▁gustaban	-11.8045
▁escrib	-11.8052
▁llegaré	-11.8053
▁hermosas	-11.8054
ible	-11.8057
▁números	-11.806
▁digan	-11.8068
▁cho	-11.8072
▁smokes	-11.8086
▁formal	-11.8087
▁usan	-11.8103
▁estúpidas	-11.8107
▁vengan	-11.8117
pped	-11.8126
▁fuerzas	-11.8155
▁suitcases	-11.8164
▁sube	-11.8193
▁locos	-11.8196
▁piedras	-11.8202
▁trozos	-11.8212
▁odiar	-11.8216
▁estacion	-11.8217
▁sopl	-11.8217
tuviste	-11.8222
▁baila	-11.8231
▁hablarle	-11.8244
rías	-11.8257
▁cometa	-11.826
▁junt	-11.8262
▁perdona	-11.8273
▁seda	-11.8288
▁frutas	-11.8289
ware	-11.831
▁sew	-11.8319
lew	-11.8331
▁acostumbr	-11.8331
▁li	-11.834
iera	-11.8343
sos	-11.8346
ished	-11.8346
rte	-11.8367
▁aliment	-11.8369
▁milagro	-11.837
▁verdes	-11.8376
▁escala	-11.8377
▁character	-11.8378
▁principiante	-11.838
▁papa	-11.838
ily	-11.8381
▁cambie	-11.8381
▁elefante	-11.8382
▁comment	-11.8383
▁peligrosa	-11.8384
▁nail	-11.8384
▁candle	-11.8384
▁competent	-11.8385
▁fantasma	-11.8385
▁droga	-11.8386
▁deseos	-11.8388
▁rompe	-11.8393
▁foreigner	-11.8393
actuando	-11.8395
▁sometime	-11.8406
▁goat	-11.8408
▁tumba	-11.8417
▁consist	-11.842
ármelo	-11.8424
▁crece	-11.8433
▁comprende	-11.844
▁gang	-11.8449
pé	-11.8449
▁individual	-11.8452
gracias	-11.8454
▁heridos	-11.846
aría	-11.8461
ucho	-11.8465
creés	-11.8466
▁dr	-11.8466
fuiste	-11.8468
ob	-11.8472
▁rise	-11.8473
▁disgust	-11.8475
▁juegue	-11.8476
▁korea	-11.8477
▁exact	-11.8477
imed	-11.8479
▁aspirin	-11.8487
cho	-11.849
ándome	-11.8491
vienes	-11.8494
▁comidas	-11.8496
▁disagree	-11.8497
ine	-11.8498
▁influence	-11.85
▁postpone	-11.8502
▁engañar	-11.8503
▁crack	-11.8503
▁pronounce	-11.8505
metió	-11.8505
▁conduct	-11.8506
▁tax	-11.8507
▁ladra	-11.8509
▁exterior	-11.851
▁corea	-11.851
▁aprecia	-11.851
▁furious	-11.8512
▁daños	-11.8512
▁fluent	-11.8512
▁robber	-11.8513
▁prime	-11.8514
▁materia	-11.8515
dejaste	-11.8515
▁east	-11.8515
▁commit	-11.8516
▁orphan	-11.8517
▁acento	-11.8517
▁alphabet	-11.8517
▁arrival	-11.8517
▁arrow	-11.8517
▁campaign	-11.8517
▁circle	-11.8517
▁comencemos	-11.8517
▁conceal	-11.8517
▁círculo	-11.8517
▁description	-11.8517
▁discount	-11.8517
▁environment	-11.8517
▁essential	-11.8517
▁explique	-11.8517
▁fbi	-11.8517
▁forecast	-11.8517
▁garaje	-11.8517
▁honeymoon	-11.8517
▁increasing	-11.8517
▁injusto	-11.8517
▁jabón	-11.8517
▁julio	-11.8517
▁llores	-11.8517
▁luxury	-11.8517
▁necklace	-11.8517
▁portugal	-11.8517
▁racket	-11.8517
▁roosevelt	-11.8517
▁semejante	-11.8517
▁soborno	-11.8517
▁switzerland	-11.8517
▁technology	-11.8517
▁tecnología	-11.8517
▁unconscious	-11.8517
▁victim	-11.8517
▁whisky	-11.8517
▁yourselves	-11.8517
▁árabe	-11.8517
▁hiroshima	-11.8517
▁inesperado	-11.8517
▁predecir	-11.8517
▁below	-11.8517
▁briefcase	-11.8517
▁gym	-11.8517
▁plain	-11.8517
▁ésos	-11.8517
▁charity	-11.8517
▁delegados	-11.8517
▁escoba	-11.8517
▁optimistic	-11.8517
▁composition	-11.8517
▁presencia	-11.8517
▁suiza	-11.8517
▁campaña	-11.8517
▁recurrir	-11.8517
▁jury	-11.8517
▁perdiste	-11.8517
▁nacimiento	-11.8517
▁dizzy	-11.8517
▁toyota	-11.8517
▁cuero	-11.8517
▁confíe	-11.8517
▁continuación	-11.8517
▁desagradable	-11.8517
▁sorprendente	-11.8517
▁figura	-11.8517
▁broom	-11.8517
▁reino	-11.8517
▁mojado	-11.8517
▁fuga	-11.8517
▁tidy	-11.8517
▁tentación	-11.8517
▁digging	-11.8518
▁pusiste	-11.8518
▁operación	-11.8518
▁rechazado	-11.8518
▁convertido	-11.8518
▁grasa	-11.8518
▁medalla	-11.8518
▁unlocked	-11.8518
▁empeorando	-11.8518
▁automovilístico	-11.8518
▁talentoso	-11.8518
▁empezaste	-11.8519
▁condenado	-11.8519
▁guía	-11.8519
▁july	-11.8519
▁fake	-11.8519
▁spicy	-11.8519
▁parties	-11.852
▁chew	-11.852
▁enviado	-11.852
▁permitió	-11.8521
▁pusiera	-11.8521
▁cambiando	-11.8521
▁moto	-11.8521
▁desayunado	-11.8521
▁caí	-11.8521
▁preocuparte	-11.8522
▁funcionará	-11.8522
▁nieva	-11.8522
▁struck	-11.8522
▁votaron	-11.8522
▁style	-11.8522
▁recomendar	-11.8524
▁probarlo	-11.8524
▁hunger	-11.8525
▁convencerlo	-11.8526
▁suelto	-11.8526
▁disgusting	-11.8526
▁sentaron	-11.8527
▁coreano	-11.8527
▁banca	-11.8527
▁convencerle	-11.8528
▁nado	-11.8529
▁punch	-11.8529
▁llegando	-11.853
vertirse	-11.853
▁online	-11.853
▁sobrevivió	-11.8532
▁cortado	-11.8534
▁hilo	-11.8534
▁medal	-11.8535
▁mentí	-11.8535
▁saludos	-11.8535
▁eighty	-11.8536
▁earned	-11.8537
▁searching	-11.8537
▁pure	-11.8538
▁tocaba	-11.8544
▁tango	-11.8544
▁averigua	-11.8545
▁caridad	-11.8546
▁aspirina	-11.8547
▁examine	-11.8548
▁confident	-11.855
▁firmó	-11.8552
▁enfermedades	-11.8554
▁recordó	-11.8554
▁vacant	-11.8558
▁breathing	-11.8559
▁adoptar	-11.8561
▁complaints	-11.8562
▁durará	-11.8564
▁decisiones	-11.8569
▁bomberos	-11.8572
▁stands	-11.8575
▁appreciated	-11.8575
▁entering	-11.8578
▁loosen	-11.8579
▁populares	-11.858
▁crops	-11.8582
▁visitarme	-11.8582
▁permíta	-11.8588
▁encontrarlo	-11.8595
▁operate	-11.8599
▁ancianos	-11.86
▁basa	-11.86
▁pierdas	-11.8602
▁customers	-11.8602
▁ingresos	-11.8602
▁comemos	-11.8605
▁toys	-11.8606
▁negros	-11.861
▁adolescentes	-11.8612
▁parts	-11.8616
▁casaron	-11.862
▁latin	-11.8622
▁viví	-11.8628
▁chairs	-11.8629
▁eche	-11.8639
▁aseguro	-11.8639
▁cuentas	-11.8639
▁vivos	-11.8642
▁encontrarme	-11.8645
▁judg	-11.865
▁canilla	-11.8652
fi	-11.8666
▁despegar	-11.8667
▁sillas	-11.867
▁anota	-11.8672
▁lid	-11.8672
▁juntas	-11.8673
▁sucia	-11.8675
▁precioso	-11.8676
▁secrets	-11.8688
▁monos	-11.8691
▁pides	-11.8703
▁dejarte	-11.8705
▁prisoners	-11.8724
▁pares	-11.8724
▁sorprender	-11.8729
▁tip	-11.8731
▁difíciles	-11.8739
▁ciudadanos	-11.8743
▁shine	-11.8746
▁ends	-11.8767
▁nación	-11.8768
▁savings	-11.8784
▁decisions	-11.8789
▁jugará	-11.8796
▁aun	-11.8804
▁faces	-11.8804
ura	-11.8808
▁revisar	-11.8824
▁suicida	-11.8841
▁durar	-11.8842
ier	-11.886
▁cakes	-11.8889
▁seek	-11.891
▁alerta	-11.8914
▁mild	-11.8914
▁metas	-11.8917
▁jo	-11.8918
▁golpear	-11.8923
▁pare	-11.893
▁contactar	-11.8955
ezca	-11.896
▁stare	-11.8966
▁baña	-11.8974
ea	-11.8988
ez	-11.8989
tara	-11.8989
▁term	-11.8999
▁risks	-11.9
▁grano	-11.9002
▁gustar	-11.9015
▁pequeñas	-11.903
ard	-11.904
▁amanecer	-11.9042
▁gastar	-11.9044
men	-11.9045
▁trampas	-11.9062
sistieron	-11.9066
▁flirt	-11.9076
▁pet	-11.9094
▁sabrá	-11.9102
▁economic	-11.9104
▁foods	-11.911
▁viejas	-11.9114
minded	-11.9115
▁encontraré	-11.9116
▁boil	-11.9125
▁miracle	-11.9139
▁sabio	-11.9139
▁invention	-11.9139
▁crudo	-11.9141
▁constant	-11.9143
▁conociera	-11.9143
▁nightmare	-11.9143
▁pig	-11.9145
▁hierba	-11.9146
▁tontería	-11.9146
▁block	-11.9147
▁límite	-11.9147
▁diamante	-11.9149
▁creep	-11.9149
▁sincero	-11.9151
▁elephant	-11.9151
▁rueda	-11.9151
▁rayo	-11.9153
▁farmer	-11.9154
▁cow	-11.9154
▁sorprendidos	-11.9156
▁rana	-11.9162
▁cable	-11.917
▁exams	-11.9178
ze	-11.9193
▁lobo	-11.92
▁ayudarlo	-11.9201
▁chill	-11.9204
▁bonitas	-11.9208
cy	-11.9213
▁tomaste	-11.9223
▁cop	-11.923
tan	-11.9231
oíste	-11.9236
phone	-11.9237
▁leña	-11.9237
house	-11.9238
▁resume	-11.924
▁famosos	-11.924
will	-11.924
volvió	-11.9242
tomás	-11.9244
sabías	-11.9245
mira	-11.9247
▁cheat	-11.9264
oh	-11.9267
▁respeta	-11.927
▁rescue	-11.9271
▁bake	-11.9271
▁mexican	-11.9272
▁reward	-11.9272
▁develop	-11.9273
▁pianist	-11.9274
▁cuantos	-11.9275
▁fren	-11.9276
▁graduate	-11.9277
▁divertir	-11.9279
▁spill	-11.9279
▁dólar	-11.9279
▁orgullosos	-11.9282
▁cálida	-11.9282
▁conociste	-11.9284
▁comfort	-11.9285
▁declara	-11.9285
▁acquaint	-11.9286
▁settle	-11.9286
▁flash	-11.9286
▁enemiga	-11.9286
▁engañe	-11.9286
▁flame	-11.9286
▁aguja	-11.9286
▁alibi	-11.9286
▁awesome	-11.9286
▁carbón	-11.9286
▁castigo	-11.9286
▁chemistry	-11.9286
▁chimenea	-11.9286
▁chocó	-11.9286
▁combustible	-11.9286
▁conmovió	-11.9286
▁eager	-11.9286
▁económica	-11.9286
▁egypt	-11.9286
▁envíe	-11.9286
▁estricta	-11.9286
▁estufa	-11.9286
▁fantastic	-11.9286
▁faucet	-11.9286
▁filipino	-11.9286
▁generous	-11.9286
▁homicidio	-11.9286
▁huelga	-11.9286
▁inténtalo	-11.9286
▁lyrics	-11.9286
▁lámpara	-11.9286
▁motocicleta	-11.9286
▁overslept	-11.9286
▁pedimos	-11.9286
▁portátil	-11.9286
▁poverty	-11.9286
▁préstamo	-11.9286
▁pudieron	-11.9286
▁puerto	-11.9286
▁pública	-11.9286
▁reliable	-11.9286
▁romántico	-11.9286
▁semáforo	-11.9286
▁shampoo	-11.9286
▁surrounded	-11.9286
▁taburete	-11.9286
▁telefónica	-11.9286
▁terribly	-11.9286
▁unhealthy	-11.9286
▁veterinario	-11.9286
▁videojuegos	-11.9286
▁wednesday	-11.9286
▁wolf	-11.9286
▁coach	-11.9286
▁hirviendo	-11.9286
▁justicia	-11.9286
▁jurado	-11.9286
▁suicidio	-11.9286
▁fifth	-11.9286
▁smith	-11.9286
▁militar	-11.9286
▁literatura	-11.9286
▁millionaire	-11.9286
▁asistente	-11.9286
▁competencia	-11.9286
▁multa	-11.9286
▁region	-11.9286
▁divirtiendo	-11.9286
▁property	-11.9286
▁traducción	-11.9286
▁inundación	-11.9286
▁cellphone	-11.9286
▁freedom	-11.9286
▁fascinante	-11.9286
▁asombroso	-11.9286
▁exigi	-11.9286
▁skinny	-11.9286
▁slipped	-11.9286
▁possibly	-11.9286
▁collection	-11.9286
▁volviera	-11.9286
▁fumo	-11.9286
▁fascinating	-11.9286
▁investigating	-11.9286
▁shallow	-11.9286
▁gimnasio	-11.9286
▁scarf	-11.9286
▁amargo	-11.9286
▁defectos	-11.9286
▁mandé	-11.9286
ámonos	-11.9286
▁miserable	-11.9286
▁soleado	-11.9287
▁ninety	-11.9287
▁practicando	-11.9287
▁sunset	-11.9287
▁goose	-11.9287
▁interpreter	-11.9287
▁máximo	-11.9287
▁mareado	-11.9287
▁tasa	-11.9287
▁ahorrando	-11.9287
▁humanidad	-11.9287
▁ocasiones	-11.9287
▁bunch	-11.9288
▁maid	-11.9288
▁cerebro	-11.9288
▁presupuesto	-11.9288
▁desorientado	-11.9288
▁aumentando	-11.9288
▁charming	-11.9288
▁típico	-11.9288
▁embarrassing	-11.9288
▁cuanta	-11.9288
▁roommate	-11.9288
▁shining	-11.9288
▁apurado	-11.9288
▁inquieto	-11.9288
▁mantenga	-11.9288
▁pardon	-11.9288
▁reality	-11.9288
▁chores	-11.9288
▁sixty	-11.9288
▁camp	-11.9288
▁unlucky	-11.9289
▁rama	-11.9289
▁asustada	-11.9289
▁charlando	-11.9289
▁leather	-11.9289
▁sufrió	-11.929
▁relieved	-11.929
▁shape	-11.9291
▁molestando	-11.9291
▁approached	-11.9291
▁compone	-11.9292
▁agradecerle	-11.9292
▁quejarte	-11.9293
▁conseguiste	-11.9293
▁absurdo	-11.9294
▁crió	-11.9294
▁confiaba	-11.9294
▁ángeles	-11.9294
▁security	-11.9295
▁recovered	-11.9295
▁clothing	-11.9295
▁diseño	-11.9296
▁empecemos	-11.9296
▁pudiste	-11.9296
▁traído	-11.9296
▁mueve	-11.9296
▁rodeado	-11.9296
▁saldrá	-11.9296
▁arreglarlo	-11.9297
▁dyed	-11.9298
▁pianista	-11.9298
▁entrenador	-11.9299
▁memorizar	-11.9301
▁anytime	-11.9301
▁descripción	-11.9302
▁evidente	-11.9302
▁cheerful	-11.9302
▁sentarte	-11.9302
▁mientas	-11.9302
▁pensamientos	-11.9302
▁quint	-11.9303
▁shooting	-11.9303
▁terminamos	-11.9303
▁ranch	-11.9303
▁sigamos	-11.9304
▁reírme	-11.9304
▁postponed	-11.9304
▁pasta	-11.9304
▁enterrado	-11.9306
▁drawing	-11.931
▁repeated	-11.931
▁escuchaste	-11.9311
▁helpful	-11.9314
▁fatal	-11.9316
▁mentioned	-11.9317
▁entenderlo	-11.9319
▁oírlo	-11.932
▁pinch	-11.932
▁packed	-11.9322
▁contarle	-11.9323
▁enseñarte	-11.9324
come	-11.9325
▁gustará	-11.9325
▁crown	-11.9325
▁tira	-11.9328
▁fooled	-11.9331
▁soñar	-11.9332
▁ajustar	-11.9335
▁opiniones	-11.9337
▁tasted	-11.934
▁entendió	-11.9341
▁vela	-11.9343
▁direct	-11.9346
▁aprovechar	-11.9349
▁rumores	-11.9349
▁accent	-11.935
ló	-11.935
▁data	-11.9354
▁ho	-11.9354
▁llevado	-11.9356
▁escuchas	-11.9358
▁welcomed	-11.9363
▁escuchaba	-11.9366
▁pagará	-11.9369
gas	-11.9377
▁citizens	-11.9377
▁charle	-11.9378
▁tools	-11.9378
▁escuches	-11.9379
▁libres	-11.9379
▁ocurren	-11.9382
▁sobras	-11.9388
▁dial	-11.9389
▁mejorando	-11.94
▁molestes	-11.94
▁doscient	-11.9404
ial	-11.9413
▁mass	-11.9417
ling	-11.9427
▁candles	-11.9433
▁politicians	-11.9444
▁prisioneros	-11.9444
hablas	-11.945
▁cultural	-11.9456
▁llenos	-11.9457
▁manten	-11.9468
▁cha	-11.9468
nza	-11.9468
▁encuentres	-11.9476
▁rodillas	-11.9476
▁ab	-11.9479
▁ages	-11.9485
bré	-11.95
ué	-11.953
tura	-11.9537
▁entienden	-11.9539
gi	-11.9548
▁hambrientos	-11.9553
▁sabíamos	-11.9554
▁answering	-11.9572
dores	-11.9578
sistencia	-11.9578
▁arrives	-11.9584
▁burns	-11.9598
▁walls	-11.9602
▁seize	-11.9616
▁vinieras	-11.962
▁pospone	-11.9625
▁esperá	-11.9626
▁mental	-11.9673
▁tirar	-11.9677
sistió	-11.9679
mu	-11.9682
▁pat	-11.9695
▁ku	-11.9701
chó	-11.9703
▁solicit	-11.9714
the	-11.9715
▁conditions	-11.9716
▁esperes	-11.9722
▁abogados	-11.9723
▁ocult	-11.9723
▁blancos	-11.9733
vete	-11.9738
▁supieras	-11.9754
▁agrees	-11.9768
way	-11.9771
▁sir	-11.9781
ric	-11.9783
▁ag	-11.9783
▁jugu	-11.9783
fully	-11.9785
encia	-11.9787
▁arrojar	-11.9791
▁negoci	-11.9792
▁asks	-11.9797
▁acabe	-11.9806
▁bur	-11.9813
▁visitas	-11.9826
estaba	-11.9841
put	-11.9846
▁operar	-11.985
▁plancha	-11.9859
▁puestos	-11.9877
▁weigh	-11.9881
▁aplica	-11.9884
▁admira	-11.9886
▁invit	-11.9903
ang	-11.9906
▁laughs	-11.9913
▁temas	-11.9913
ka	-11.9929
▁regresa	-11.9934
▁juegas	-11.9938
ned	-11.9942
▁idiotas	-11.9952
▁comprara	-11.9953
▁paintings	-11.9957
▁quedará	-11.9958
▁volunteer	-11.9966
▁ovni	-11.9972
▁pijama	-11.9972
▁ufo	-11.9972
▁andá	-11.9974
▁archivo	-11.9982
▁blanket	-11.9982
▁siguen	-11.9985
▁ste	-11.9986
▁gemelo	-11.9987
▁banana	-11.9987
▁araña	-11.9987
▁relative	-11.9988
▁alumno	-11.9988
▁trick	-11.9989
▁tiger	-11.9989
▁pondrá	-11.999
▁sheet	-12.0003
▁cambios	-12.0014
▁consiga	-12.0015
med	-12.0017
ating	-12.0019
▁recuerdos	-12.002
tera	-12.0023
▁ol	-12.0043
▁becomes	-12.0048
cio	-12.0058
zing	-12.0059
▁blam	-12.0061
▁alas	-12.0066
▁oscur	-12.0066
employed	-12.0068
llama	-12.007
▁fa	-12.0072
sobre	-12.0072
recibi	-12.0073
ice	-12.0074
aún	-12.0079
▁exit	-12.0079
▁viajes	-12.008
▁industrial	-12.008
▁montó	-12.0087
▁organ	-12.0087
▁labor	-12.0091
▁mudar	-12.0097
▁absurd	-12.0098
▁tells	-12.0103
▁cloth	-12.0103
▁repetir	-12.0104
▁surrender	-12.0106
▁pistol	-12.0106
▁accomplish	-12.0106
▁defeat	-12.0107
▁novelist	-12.0107
aña	-12.0107
▁tercer	-12.0108
▁period	-12.011
▁acudir	-12.0112
▁cuadra	-12.0112
▁potato	-12.0113
▁cuchara	-12.0114
▁incredibl	-12.0114
▁recent	-12.0115
▁happie	-12.0116
▁estupenda	-12.0116
▁susurr	-12.0117
▁probado	-12.0117
▁compro	-12.0118
▁circula	-12.0119
▁rug	-12.0119
▁disneyland	-12.0119
▁cadena	-12.0119
▁coartada	-12.0119
▁indispensable	-12.0119
▁invisible	-12.0119
▁plastic	-12.0119
▁scheme	-12.0119
▁sweep	-12.0119
▁apuñaló	-12.0119
▁atmosphere	-12.0119
▁atmósfera	-12.0119
▁bastón	-12.0119
▁cueva	-12.0119
▁curiosity	-12.0119
▁dirige	-12.0119
▁egipto	-12.0119
▁febrero	-12.0119
▁february	-12.0119
▁hagámoslo	-12.0119
▁jersey	-12.0119
▁juramento	-12.0119
▁koala	-12.0119
▁mahjong	-12.0119
▁maletero	-12.0119
▁muralla	-12.0119
▁obtuve	-12.0119
▁outdoors	-12.0119
▁pacífico	-12.0119
▁perfume	-12.0119
▁pésima	-12.0119
▁resemblance	-12.0119
▁sacerdote	-12.0119
▁skating	-12.0119
▁solving	-12.0119
▁stiff	-12.0119
▁sucediendo	-12.0119
▁suspicion	-12.0119
▁twitter	-12.0119
▁victoria	-12.0119
▁voleibol	-12.0119
▁colección	-12.0119
▁engañado	-12.0119
▁excepción	-12.0119
▁helmet	-12.0119
▁hilton	-12.0119
▁pledge	-12.0119
▁raqueta	-12.0119
▁risa	-12.0119
▁construction	-12.0119
▁enojó	-12.0119
▁noventa	-12.0119
▁surgery	-12.0119
▁apropiado	-12.0119
▁gané	-12.0119
▁oath	-12.0119
▁textbook	-12.0119
▁despegó	-12.0119
▁essay	-12.0119
▁forzado	-12.0119
▁hurried	-12.0119
▁registradora	-12.0119
▁siglo	-12.0119
▁pollera	-12.0119
▁steak	-12.0119
▁región	-12.0119
▁assistance	-12.0119
▁perdida	-12.0119
▁temptation	-12.0119
▁teresa	-12.0119
▁creciendo	-12.0119
▁kong	-12.0119
rubbed	-12.0119
▁tries	-12.0119
▁ignorance	-12.0119
▁queráis	-12.0119
▁ignorancia	-12.012
▁producción	-12.012
▁postura	-12.012
▁detallada	-12.012
▁condujera	-12.012
▁empeorar	-12.012
▁production	-12.012
▁chef	-12.012
▁aggressive	-12.012
▁scarce	-12.012
▁comenzando	-12.012
▁presentimiento	-12.012
▁jarra	-12.012
▁announced	-12.012
▁prometiste	-12.012
▁estuviese	-12.012
▁serbia	-12.012
▁modales	-12.012
▁pobreza	-12.012
▁nublado	-12.012
▁downtown	-12.012
▁lloraba	-12.012
▁latín	-12.0121
▁talkative	-12.0121
▁concentrarme	-12.0121
▁sentimos	-12.0121
▁relajado	-12.0121
▁hunter	-12.0121
▁kidnapped	-12.0121
▁harp	-12.0121
▁tolerate	-12.0121
▁retrasado	-12.0121
▁severo	-12.0121
▁contrató	-12.0121
▁tardará	-12.0121
▁secretaria	-12.0122
▁miércoles	-12.0122
▁dawn	-12.0122
▁retiró	-12.0122
▁petición	-12.0122
▁effective	-12.0122
▁previsto	-12.0122
▁ceremonia	-12.0122
▁defender	-12.0122
▁aventura	-12.0122
▁fried	-12.0123
▁plead	-12.0123
▁solid	-12.0124
▁fumando	-12.0124
▁cuán	-12.0124
▁guide	-12.0124
▁pride	-12.0124
▁conciencia	-12.0125
▁agradecerte	-12.0125
▁sword	-12.0126
▁millonario	-12.0126
▁theft	-12.0126
▁horno	-12.0126
▁incredible	-12.0126
▁lastimado	-12.0128
▁yelling	-12.0128
▁marchar	-12.0128
▁frontera	-12.0128
▁besando	-12.0129
▁remote	-12.013
▁saldr	-12.013
▁rancho	-12.013
▁función	-12.0131
▁rollo	-12.0131
gging	-12.0131
▁congratulated	-12.0132
▁jar	-12.0133
▁apuntes	-12.0133
▁oración	-12.0133
▁sándwiches	-12.0134
▁defeated	-12.0134
▁servirá	-12.0134
▁correctamente	-12.0135
▁windy	-12.0135
▁collected	-12.0136
▁prayed	-12.0137
▁trash	-12.0138
▁resigned	-12.0138
▁install	-12.0138
▁buscas	-12.0138
▁frozen	-12.0139
donald	-12.0139
▁compramos	-12.0139
▁importaba	-12.014
▁sufre	-12.014
▁cogieron	-12.0142
▁retirar	-12.0143
▁repairing	-12.0143
▁lavarse	-12.0144
▁pala	-12.0144
▁interrupted	-12.0145
▁planeado	-12.0146
▁contenta	-12.0147
▁levantarte	-12.0148
▁intentaré	-12.0149
▁preguntaré	-12.0149
▁remove	-12.0151
▁advanced	-12.0151
▁expenses	-12.0151
▁stain	-12.0153
▁ka	-12.0155
▁longest	-12.0155
▁llegaremos	-12.0156
▁trabaje	-12.0156
▁pensarlo	-12.0159
▁knocking	-12.0159
▁hamburguesas	-12.0161
▁flea	-12.0161
▁cure	-12.0163
▁salía	-12.0166
▁waiter	-12.0166
▁compraría	-12.0167
▁ayudaros	-12.0168
▁landed	-12.0168
▁helpless	-12.0169
▁matarme	-12.017
▁shed	-12.017
▁vendedor	-12.0173
▁corona	-12.0174
▁dormía	-12.0176
▁huérfano	-12.0176
▁cantaba	-12.0177
▁entendía	-12.0179
▁pronuncia	-12.0179
▁consideran	-12.018
▁ponerlo	-12.0181
▁observar	-12.0183
▁slapp	-12.0185
▁x	-12.0186
▁sung	-12.0187
▁arrancar	-12.0188
▁estaciones	-12.0188
▁agradec	-12.0189
▁counting	-12.019
▁alike	-12.0192
▁litera	-12.0192
▁mor	-12.0193
▁preguntado	-12.0194
▁estampillas	-12.0196
▁británicos	-12.0196
▁handy	-12.0198
▁palm	-12.0198
▁dresses	-12.02
▁verás	-12.0202
▁robot	-12.0204
▁cal	-12.0204
▁falló	-12.0209
▁aboard	-12.0209
▁rep	-12.0211
▁recuperar	-12.0211
▁manej	-12.0214
▁hablara	-12.0214
▁cometí	-12.0219
▁boxes	-12.022
▁plátanos	-12.022
▁mud	-12.0225
tic	-12.023
▁ballenas	-12.0232
▁armed	-12.0233
▁consiste	-12.0235
dded	-12.0241
▁crecer	-12.0243
▁wan	-12.0244
▁skills	-12.0244
▁probó	-12.0245
▁bal	-12.0245
▁adaptar	-12.026
▁cops	-12.0263
▁elephants	-12.0267
▁ruedas	-12.0267
▁funcione	-12.0278
per	-12.0279
▁elefantes	-12.0279
▁comments	-12.0279
▁rested	-12.0282
▁pace	-12.0287
▁pedazos	-12.0291
tions	-12.0295
▁cheques	-12.0303
▁abandona	-12.0307
▁relate	-12.0313
▁criad	-12.0325
▁curtains	-12.0327
▁sucios	-12.0327
▁acto	-12.0338
▁forgiven	-12.0342
vos	-12.0358
▁enfrentar	-12.0358
▁official	-12.0361
▁confund	-12.0364
▁tristes	-12.0372
▁caras	-12.0374
▁antiguas	-12.0387
▁discuta	-12.0391
▁aumenta	-12.0391
▁tocado	-12.0393
ak	-12.0395
▁inso	-12.0398
cen	-12.0408
▁pills	-12.0411
▁tard	-12.0414
▁tiendas	-12.0416
▁heridas	-12.0436
cking	-12.0448
▁pel	-12.0451
▁cases	-12.0454
signed	-12.0459
▁numbers	-12.0461
▁sa	-12.0462
▁phoned	-12.0474
▁pesos	-12.0479
▁vivi	-12.0497
▁ciertas	-12.0508
▁abuelos	-12.0514
▁lawyers	-12.0514
▁contiene	-12.0522
▁wasted	-12.0535
▁cajas	-12.0542
alo	-12.0549
ered	-12.055
▁riesgos	-12.0553
selo	-12.0555
▁acusar	-12.0556
▁atrapados	-12.0557
ter	-12.0561
▁informar	-12.0562
▁confirm	-12.0565
▁arrastr	-12.0578
lic	-12.0578
▁aguanta	-12.0585
ary	-12.0586
▁bu	-12.0588
▁dejará	-12.0598
▁horne	-12.0606
tas	-12.0611
▁rumors	-12.0628
▁interpret	-12.0649
▁desperdicia	-12.0651
▁leía	-12.0651
▁faltan	-12.0659
0,000	-12.0672
▁queríamos	-12.0674
▁bonitos	-12.0679
▁bags	-12.0691
▁bitte	-12.0695
▁mayo	-12.0703
▁cortas	-12.0705
▁arregla	-12.0711
▁nativos	-12.0716
▁saluda	-12.0726
▁exception	-12.0734
▁pega	-12.0738
▁llamara	-12.0741
▁andaba	-12.0747
▁desprecia	-12.0757
for	-12.0762
▁vení	-12.0767
▁chinos	-12.0767
▁spa	-12.0771
▁pu	-12.0781
▁suits	-12.0782
▁mereces	-12.0785
▁espaldas	-12.0803
via	-12.0804
▁needle	-12.0805
▁th	-12.0812
▁mix	-12.0816
▁rem	-12.0819
▁estudios	-12.0828
▁explic	-12.084
▁extend	-12.0843
▁causar	-12.0845
▁recog	-12.0849
▁compensa	-12.0854
▁explica	-12.0855
▁clave	-12.0858
▁buildings	-12.0862
▁retire	-12.0871
▁skill	-12.0873
▁económico	-12.0881
▁eléctrico	-12.0881
▁gatito	-12.0881
▁encendida	-12.0882
ally	-12.0886
▁topic	-12.0887
▁bump	-12.0888
▁levante	-12.0888
▁distinta	-12.089
▁kite	-12.089
▁slice	-12.089
▁lemon	-12.0891
▁entienda	-12.0892
▁desconocido	-12.0892
▁truco	-12.0893
▁antique	-12.0894
▁tigre	-12.0895
▁turista	-12.0901
ul	-12.091
▁grado	-12.091
▁fac	-12.091
▁bills	-12.0915
▁fina	-12.0928
▁moleste	-12.0936
▁decí	-12.0945
▁divid	-12.0946
▁déje	-12.0946
▁vigila	-12.0947
nna	-12.095
▁palma	-12.0968
sabéis	-12.0974
ship	-12.0974
ayer	-12.098
compraste	-12.098
mañana	-12.098
▁empujó	-12.0984
aquí	-12.0985
ssed	-12.0986
0,	-12.0988
▁ancho	-12.099
▁image	-12.099
▁registr	-12.099
▁enamorados	-12.099
ándole	-12.1005
▁bark	-12.1008
▁yell	-12.1008
▁podr	-12.101
pon	-12.101
▁deliver	-12.1012
▁llovi	-12.1014
▁squeak	-12.1015
▁punish	-12.1016
▁destroy	-12.1016
▁basta	-12.1017
▁crawl	-12.1018
▁bore	-12.1022
▁ligera	-12.1025
▁engaño	-12.1026
▁inmediata	-12.1026
▁reciente	-12.1026
▁aparenta	-12.1027
▁orgullo	-12.1028
▁depart	-12.1028
▁checks	-12.1028
▁thai	-12.1028
▁almuerza	-12.1028
▁chalk	-12.1028
▁dáselo	-12.1028
▁estricto	-12.1028
▁estropeado	-12.1028
▁financiera	-12.1028
▁link	-12.1028
▁smooth	-12.1028
▁traitor	-12.1028
caño	-12.1028
▁appropriate	-12.1028
▁awoke	-12.1028
▁bathtub	-12.1028
▁blouse	-12.1028
▁bufanda	-12.1028
▁cordones	-12.1028
▁cómete	-12.1028
▁diablo	-12.1028
▁dieciséis	-12.1028
▁divertimos	-12.1028
▁estupidez	-12.1028
▁fellow	-12.1028
▁fluidamente	-12.1028
▁graduó	-12.1028
▁greece	-12.1028
▁insecure	-12.1028
▁intenciones	-12.1028
▁literature	-12.1028
▁locura	-12.1028
▁lío	-12.1028
▁lógica	-12.1028
▁marrón	-12.1028
▁maíz	-12.1028
▁movió	-12.1028
▁olvidadizo	-12.1028
▁positive	-12.1028
▁revenge	-12.1028
▁revolution	-12.1028
▁ritmo	-12.1028
▁récord	-12.1028
▁sanguíneo	-12.1028
▁scotland	-12.1028
▁shoelaces	-12.1028
▁spaghetti	-12.1028
▁starving	-12.1028
▁sueltes	-12.1028
▁tattoo	-12.1028
▁telefónico	-12.1028
▁trousers	-12.1028
▁tunnel	-12.1028
▁término	-12.1028
▁uncomfortable	-12.1028
▁undressing	-12.1028
▁unpleasant	-12.1028
▁victory	-12.1028
▁worries	-12.1028
▁ópera	-12.1028
▁berlin	-12.1028
▁blusa	-12.1028
▁perezoso	-12.1028
▁destiny	-12.1028
▁escocia	-12.1028
▁jerk	-12.1028
▁muéstre	-12.1028
▁traidor	-12.1028
▁arabic	-12.1028
▁fluidez	-12.1028
▁atractivo	-12.1028
▁morder	-12.1028
▁prevenir	-12.1028
▁propiedad	-12.1028
▁valentin	-12.1028
▁temple	-12.1028
▁zumo	-12.1028
▁battery	-12.1028
▁performance	-12.1028
▁expresión	-12.1028
▁spoon	-12.1028
▁agenda	-12.1028
▁viniendo	-12.1028
▁zero	-12.1028
▁sonrieron	-12.1028
▁aliviado	-12.1028
▁necessity	-12.1028
▁bañera	-12.1028
▁cabaña	-12.1028
▁comiera	-12.1028
▁túnel	-12.1028
▁grecia	-12.1029
▁pecho	-12.1029
▁sorprendida	-12.1029
▁construyeron	-12.1029
▁supiste	-12.1029
▁swimmer	-12.1029
▁canasta	-12.1029
▁creature	-12.1029
▁descubrí	-12.1029
▁aviso	-12.1029
▁rompí	-12.1029
▁reconozco	-12.1029
▁tropical	-12.1029
▁déjanos	-12.1029
▁fluido	-12.1029
▁cocinera	-12.1029
▁generation	-12.1029
▁whispered	-12.1029
▁complicada	-12.1029
▁genuine	-12.1029
▁housework	-12.1029
▁dining	-12.1029
▁cavando	-12.1029
▁backyard	-12.1029
▁deportivo	-12.1029
▁pearl	-12.1029
▁numerosa	-12.1029
▁florero	-12.1029
▁marzo	-12.1029
▁freezing	-12.1029
▁poderoso	-12.1029
▁ministro	-12.1029
▁descuento	-12.1029
▁respiración	-12.103
▁relajarme	-12.103
▁pura	-12.103
▁confiado	-12.103
▁inherit	-12.103
▁ladrando	-12.103
▁aplaudió	-12.103
▁atropellado	-12.103
▁soltó	-12.103
▁exploded	-12.1031
▁panic	-12.1031
▁sentarnos	-12.1031
▁impresionante	-12.1031
▁pantalla	-12.1031
▁texas	-12.1031
▁vidrio	-12.1031
▁arriesgado	-12.1031
▁despidieron	-12.1031
▁disculparme	-12.1031
▁invest	-12.1031
▁divirtió	-12.1032
▁rendirse	-12.1032
▁joyas	-12.1032
▁proposed	-12.1032
▁arranged	-12.1032
▁impos	-12.1032
▁pronunciar	-12.1032
▁nacier	-12.1032
▁háblame	-12.1032
▁wow	-12.1033
▁bajé	-12.1033
▁parezca	-12.1033
▁directly	-12.1033
▁conditioner	-12.1034
▁aceptable	-12.1034
▁atajo	-12.1034
▁baking	-12.1034
▁personaje	-12.1034
▁justice	-12.1036
▁declaración	-12.1036
▁careless	-12.1036
▁volviste	-12.1037
▁praised	-12.1037
▁regularly	-12.1038
▁severe	-12.1038
▁chased	-12.1038
▁sub	-12.1039
▁trade	-12.1039
▁discutimos	-12.1039
▁carrots	-12.104
▁acostarme	-12.104
▁trace	-12.104
▁realizó	-12.104
▁contenido	-12.1041
▁puertas	-12.1041
▁aprendemos	-12.1042
▁cancelado	-12.1042
▁entrado	-12.1042
▁volunteered	-12.1042
▁waved	-12.1042
▁novelista	-12.1043
▁situa	-12.1043
▁póngase	-12.1043
▁click	-12.1043
van	-12.1044
▁brilla	-12.1044
▁nave	-12.1045
▁section	-12.1046
▁yelled	-12.1046
▁distracted	-12.1046
▁especialmente	-12.1047
▁settled	-12.1047
▁jewels	-12.1048
▁kilograms	-12.1048
▁zanahorias	-12.1048
▁coughing	-12.1048
▁suministros	-12.1048
▁relacion	-12.1049
▁mango	-12.105
▁traduce	-12.1051
▁boiled	-12.1051
▁decorate	-12.1051
▁matches	-12.1051
▁fortunate	-12.1052
▁sinking	-12.1053
▁jumping	-12.1054
▁quemé	-12.1054
▁ordené	-12.1054
omic	-12.1058
▁practicar	-12.1058
▁aclarar	-12.1058
▁insultó	-12.1058
▁marco	-12.106
▁pounds	-12.1061
▁fritas	-12.1061
▁dejando	-12.1063
▁besara	-12.1064
▁fold	-12.1064
▁borrachos	-12.1066
▁ruidosa	-12.1066
▁resfriar	-12.1068
▁posiblemente	-12.1068
▁celebra	-12.1068
ant	-12.1071
▁polish	-12.1071
▁consequences	-12.1074
▁leftovers	-12.1074
▁coca	-12.1077
▁ratas	-12.1078
▁lleguemos	-12.1079
▁safely	-12.1079
▁escucharlo	-12.1081
▁estante	-12.1085
done	-12.1085
▁pastillas	-12.1087
▁lightly	-12.1098
▁postal	-12.1099
▁oíste	-12.11
▁vegetarianos	-12.1102
▁aid	-12.1102
▁shortly	-12.1102
▁sudor	-12.1103
▁cuidará	-12.1106
▁planeaba	-12.1106
fe	-12.1106
▁matarte	-12.1109
▁pluck	-12.111
▁brakes	-12.1113
▁subí	-12.1116
▁finales	-12.1119
▁stirr	-12.1124
▁reconocer	-12.1127
▁escase	-12.1127
▁sentences	-12.1129
▁mina	-12.1131
▁veremos	-12.1135
▁protesta	-12.1136
▁asco	-12.1136
▁colgar	-12.1137
▁unido	-12.1142
cel	-12.1145
ki	-12.1147
aga	-12.1149
▁bee	-12.1149
▁pron	-12.1151
▁spiders	-12.1152
▁teenagers	-12.1152
▁notes	-12.1152
▁vegetarians	-12.1152
▁comprendi	-12.1152
▁manténga	-12.1158
▁shows	-12.1164
▁include	-12.1167
▁sab	-12.1168
▁pacientes	-12.1168
▁tricks	-12.1178
▁empezará	-12.1178
▁quedarás	-12.1182
▁confi	-12.1183
▁llevarlo	-12.1188
ense	-12.1188
▁messages	-12.1193
▁indicar	-12.1198
▁seco	-12.12
▁constante	-12.1202
▁honesta	-12.1202
▁apesta	-12.1204
▁sincere	-12.1205
adora	-12.1211
▁cepillar	-12.1213
telo	-12.1218
▁pot	-12.1223
▁liberar	-12.1223
▁leads	-12.1226
▁arañas	-12.1234
stó	-12.1237
ju	-12.1241
▁ignora	-12.1243
▁felicit	-12.1243
yeron	-12.1254
▁rats	-12.1256
▁customs	-12.1257
ika	-12.1259
ador	-12.1262
▁médicos	-12.1268
▁fingí	-12.127
▁dejase	-12.1278
▁ge	-12.1282
▁damas	-12.1285
▁cherr	-12.129
▁celebrar	-12.1292
▁provoc	-12.1311
▁casamos	-12.1319
▁ponen	-12.1319
▁inusual	-12.1322
▁doctores	-12.1333
dad	-12.1335
▁lessons	-12.135
spite	-12.1351
▁mist	-12.1372
▁temor	-12.1373
▁antiguos	-12.1376
▁corr	-12.1379
▁funcionan	-12.138
▁ladrar	-12.1387
▁meetings	-12.1396
can	-12.1404
▁volvía	-12.1409
▁deberá	-12.1415
ísima	-12.1424
sigues	-12.1429
▁diseases	-12.143
arle	-12.1434
▁criar	-12.1441
▁hombros	-12.1443
▁grita	-12.145
rg	-12.1461
▁complains	-12.1462
▁interfere	-12.1464
▁abras	-12.1468
▁mislead	-12.147
▁convenc	-12.1472
▁equivoca	-12.1486
▁alert	-12.1495
▁terremotos	-12.151
▁sides	-12.1517
ui	-12.1519
▁resolv	-12.1523
▁cruza	-12.1524
▁lograr	-12.1526
▁persuadir	-12.1531
▁enseñ	-12.1534
▁vendrás	-12.1544
▁earthquakes	-12.1551
▁interfer	-12.1562
▁desat	-12.1565
zed	-12.1572
▁corn	-12.1578
▁habits	-12.1578
▁acompañ	-12.1584
▁soltar	-12.1584
tivo	-12.1591
▁suyos	-12.1618
▁políticas	-12.1632
ponlo	-12.1644
▁groups	-12.1659
▁crea	-12.1659
▁hipo	-12.1668
▁incluye	-12.1669
▁pagan	-12.1674
▁satisfechos	-12.17
▁1,000	-12.17
berg	-12.1705
▁revisa	-12.1706
▁entrega	-12.1707
▁verdaderos	-12.1714
▁sl	-12.1723
▁bon	-12.1727
▁bolígrafos	-12.1727
rry	-12.1736
illas	-12.1738
▁breaks	-12.1745
▁apoya	-12.1757
rán	-12.1759
▁enfada	-12.1761
▁junta	-12.1791
▁grupos	-12.1796
▁quedas	-12.1807
cree	-12.1808
▁pinturas	-12.1823
▁esperanzas	-12.1823
ches	-12.1843
▁produ	-12.1844
▁cru	-12.1847
▁fracasar	-12.1858
▁wrap	-12.1862
▁gum	-12.1864
▁bra	-12.1869
▁unió	-12.187
▁flecha	-12.1882
cal	-12.1882
▁vegetarian	-12.1882
▁ensayo	-12.1885
▁navideña	-12.1885
▁score	-12.1885
▁vitamin	-12.1886
day	-12.1887
▁effect	-12.1888
▁oveja	-12.1888
land	-12.1889
▁dig	-12.1891
▁víctima	-12.1891
▁camello	-12.1891
▁monkey	-12.1892
▁casé	-12.1892
▁granjero	-12.1892
▁beginner	-12.1893
▁separado	-12.1893
▁engineer	-12.1893
▁spider	-12.1893
▁teenager	-12.1893
▁ballena	-12.1894
▁captur	-12.1894
▁adolescente	-12.1895
▁vitamina	-12.1904
▁zapato	-12.1907
▁sobra	-12.1909
▁warning	-12.1912
ster	-12.1918
▁lines	-12.1918
▁rebel	-12.1926
▁horn	-12.1927
▁limit	-12.1932
nged	-12.1934
▁estima	-12.1935
▁bloque	-12.1941
▁industria	-12.1943
tled	-12.1943
sion	-12.1954
entendiste	-12.1973
tazo	-12.1974
encontraste	-12.198
cerró	-12.198
querría	-12.198
siempre	-12.1981
nunca	-12.1981
quisiera	-12.1981
thank	-12.1981
quiero	-12.1981
pressed	-12.1986
▁hablarte	-12.1986
dijo	-12.1988
itas	-12.1994
▁driven	-12.1997
ció	-12.1999
▁verlos	-12.2
▁marte	-12.2002
▁guarantee	-12.2011
▁shave	-12.2013
▁fro	-12.2013
▁congratulate	-12.2013
▁identif	-12.2013
▁dye	-12.2013
▁rechazar	-12.2014
▁chain	-12.2015
▁reserve	-12.2015
▁focus	-12.2016
▁reveal	-12.2016
ártelo	-12.2016
stico	-12.2016
▁theirs	-12.2017
▁jugado	-12.2019
▁parks	-12.2019
▁ascenso	-12.2019
▁nacional	-12.2021
▁superfici	-12.2022
▁app	-12.2022
▁unfortunate	-12.2024
▁hábil	-12.2025
▁tímida	-12.2025
▁measure	-12.2027
cas	-12.2027
▁spy	-12.2027
▁compose	-12.2027
▁indulge	-12.2028
▁natal	-12.2028
▁occur	-12.2028
▁minister	-12.2028
ustria	-12.2028
▁acknowledge	-12.2028
▁acumul	-12.2028
▁aficionado	-12.2028
▁agresivo	-12.2028
▁alivio	-12.2028
▁almacén	-12.2028
▁amateur	-12.2028
▁architect	-12.2028
▁argentina	-12.2028
▁arquitecto	-12.2028
▁asqueroso	-12.2028
▁attorney	-12.2028
▁aviones	-12.2028
▁barefoot	-12.2028
▁blog	-12.2028
▁bloom	-12.2028
▁brazilian	-12.2028
▁buzón	-12.2028
▁cariño	-12.2028
▁castaño	-12.2028
▁catholic	-12.2028
▁century	-12.2028
▁ceremony	-12.2028
▁champion	-12.2028
▁chemical	-12.2028
▁chopin	-12.2028
▁cicatriz	-12.2028
▁closing	-12.2028
▁columbus	-12.2028
▁commercial	-12.2028
▁conocida	-12.2028
▁curioso	-12.2028
▁darwin	-12.2028
▁declared	-12.2028
▁desafortunado	-12.2028
▁desafío	-12.2028
▁dismissed	-12.2028
▁disney	-12.2028
▁encienda	-12.2028
▁engagement	-12.2028
▁envidia	-12.2028
▁envidio	-12.2028
▁etiqueta	-12.2028
▁female	-12.2028
▁filosofía	-12.2028
▁fotógrafo	-12.2028
▁gambling	-12.2028
▁generoso	-12.2028
▁globo	-12.2028
▁grandparents	-12.2028
▁hangover	-12.2028
▁hurricane	-12.2028
▁improving	-12.2028
▁imágenes	-12.2028
▁inteligencia	-12.2028
▁interview	-12.2028
▁kanji	-12.2028
▁laguna	-12.2028
▁laundry	-12.2028
▁magnífica	-12.2028
▁malgaste	-12.2028
▁mischievous	-12.2028
▁monroe	-12.2028
▁niñito	-12.2028
▁november	-12.2028
▁okinawa	-12.2028
▁omelet	-12.2028
▁opponent	-12.2028
▁overcoat	-12.2028
▁oysters	-12.2028
▁pacific	-12.2028
▁physical	-12.2028
▁plástico	-12.2028
▁rastro	-12.2028
▁refund	-12.2028
▁reproductor	-12.2028
▁resaca	-12.2028
▁response	-12.2028
▁sapporo	-12.2028
▁semestre	-12.2028
▁shinjuku	-12.2028
▁thunder	-12.2028
▁tractor	-12.2028
▁travieso	-12.2028
▁unmarried	-12.2028
▁vodka	-12.2028
▁whining	-12.2028
▁zealand	-12.2028
▁zelanda	-12.2028
▁alternative	-12.2028
▁august	-12.2028
▁napole	-12.2028
▁niego	-12.2028
▁shade	-12.2028
▁splash	-12.2028
▁contagious	-12.2028
▁escríbeme	-12.2028
▁paranoico	-12.2028
▁plazo	-12.2028
▁revolución	-12.2028
▁broad	-12.2028
▁camarero	-12.2028
▁entrevista	-12.2028
▁hágame	-12.2028
▁identical	-12.2028
▁patético	-12.2028
▁promoted	-12.2028
▁identidad	-12.2028
▁pausa	-12.2028
▁receta	-12.2028
▁claridad	-12.2028
▁estacionamiento	-12.2028
▁excursión	-12.2028
▁trial	-12.2028
▁admission	-12.2028
▁paranoid	-12.2028
▁recipe	-12.2028
▁templo	-12.2028
▁typewriter	-12.2028
▁abriera	-12.2028
▁agrado	-12.2028
▁equipment	-12.2028
▁slavery	-12.2028
babies	-12.2028
▁biwa	-12.2028
▁gorra	-12.2028
▁colón	-12.2028
▁grandpa	-12.2028
▁fax	-12.2028
▁mailbox	-12.2028
▁strawberries	-12.2028
▁entendieron	-12.2028
▁malgasta	-12.2028
▁western	-12.2028
▁asocia	-12.2028
▁mentirosa	-12.2028
▁rabia	-12.2028
▁software	-12.2028
▁combine	-12.2028
▁defendant	-12.2028
▁espía	-12.2028
▁espada	-12.2028
▁relief	-12.2028
▁pruébate	-12.2028
▁merezco	-12.2029
▁sympathy	-12.2029
▁nevada	-12.2029
▁engordado	-12.2029
▁sintieron	-12.2029
▁liberty	-12.2029
▁flush	-12.2029
▁assist	-12.2029
▁sufriendo	-12.2029
▁fascinated	-12.2029
▁mask	-12.2029
▁tumor	-12.2029
▁huir	-12.2029
▁encontraba	-12.2029
▁privada	-12.2029
▁majority	-12.2029
▁sediento	-12.2029
▁billion	-12.2029
▁expression	-12.2029
▁simply	-12.2029
▁pub	-12.2029
▁campus	-12.2029
▁diploma	-12.2029
▁ladies	-12.2029
▁siéntese	-12.2029
▁estudie	-12.2029
▁crew	-12.2029
▁shovel	-12.2029
▁sentencia	-12.2029
▁onions	-12.2029
▁venture	-12.2029
▁obligación	-12.2029
▁humiliated	-12.2029
▁venganza	-12.2029
▁sostenía	-12.2029
▁reluctantly	-12.2029
▁chatting	-12.203
▁existencia	-12.203
▁curry	-12.203
▁frequently	-12.203
▁accidentally	-12.203
▁personalidad	-12.203
▁baje	-12.203
▁applauded	-12.203
▁sentémonos	-12.203
▁turquía	-12.2031
▁terrified	-12.2031
▁observó	-12.2031
▁balloon	-12.2031
▁tirado	-12.2031
▁sobrevivieron	-12.2031
▁photographer	-12.2031
▁apresúrate	-12.2031
▁ilusión	-12.2031
▁cállate	-12.2031
▁sixteen	-12.2031
▁grites	-12.2031
▁symbol	-12.2031
▁discovery	-12.2031
▁mc	-12.2031
▁chest	-12.2032
▁portuguese	-12.2032
▁asustó	-12.2032
▁roy	-12.2032
▁eché	-12.2032
▁observe	-12.2032
▁ordenada	-12.2032
▁pico	-12.2032
▁hook	-12.2033
▁wandered	-12.2033
▁tomatoes	-12.2033
▁perdonado	-12.2033
▁severely	-12.2033
▁cuidadosa	-12.2034
▁gallo	-12.2034
▁preguntes	-12.2034
▁mudarse	-12.2034
▁approaching	-12.2034
▁pegado	-12.2034
▁entendemos	-12.2034
▁nevará	-12.2034
▁connected	-12.2034
▁suavemente	-12.2035
▁sintiendo	-12.2035
▁entusiasmado	-12.2035
▁olla	-12.2035
▁familiarizado	-12.2035
▁quejar	-12.2036
▁pintando	-12.2036
▁giró	-12.2036
▁impacto	-12.2036
▁animó	-12.2036
▁tortured	-12.2036
▁turtles	-12.2036
▁muerde	-12.2036
▁niega	-12.2036
▁gradual	-12.2037
▁tiza	-12.2037
▁occupied	-12.2037
▁invitaste	-12.2037
▁muchísima	-12.2038
▁recado	-12.2038
▁offended	-12.2038
▁gano	-12.2039
▁sentate	-12.2039
▁contributed	-12.2039
▁atravesar	-12.204
▁revealed	-12.2041
▁struggled	-12.2041
▁traditional	-12.2041
▁habilidades	-12.2041
▁angeles	-12.2042
▁utter	-12.2042
▁leyera	-12.2042
▁chewing	-12.2042
▁guardado	-12.2043
▁adventure	-12.2043
▁escaparon	-12.2043
▁shaved	-12.2044
▁negotiate	-12.2044
▁created	-12.2044
▁molestarte	-12.2044
▁despedirme	-12.2045
▁slightly	-12.2045
▁señales	-12.2045
▁hopeless	-12.2046
▁risky	-12.2046
▁pidiera	-12.2047
▁demora	-12.2047
▁lastimarte	-12.2047
▁rellenar	-12.2047
▁tightly	-12.2048
▁worker	-12.2048
▁adivinar	-12.2049
▁cenó	-12.205
▁folded	-12.205
▁circunstancias	-12.205
▁jesus	-12.205
▁tortugas	-12.205
ham	-12.205
▁acordarme	-12.2051
iéramos	-12.2053
▁interrupting	-12.2053
▁portón	-12.2053
▁dí	-12.2053
▁hesitated	-12.2054
▁rompa	-12.2054
▁registro	-12.2054
▁dinos	-12.2054
▁explicaré	-12.2058
▁útiles	-12.206
tendrás	-12.2061
▁preguntarme	-12.2063
▁acerques	-12.2065
▁necesité	-12.2066
▁desmayar	-12.2066
▁considerada	-12.2067
▁ruinas	-12.2068
▁tank	-12.2068
▁culparte	-12.2069
▁acceptable	-12.2069
▁ordenadores	-12.2071
▁correctly	-12.2072
▁prender	-12.2076
▁agente	-12.2077
▁abrazar	-12.2077
▁pino	-12.2078
▁comparte	-12.2081
▁arrestó	-12.2083
▁georg	-12.2084
▁dilo	-12.2084
▁atrev	-12.2085
▁completed	-12.209
▁cabin	-12.2093
▁frutos	-12.2093
▁cantado	-12.2093
▁reca	-12.2095
▁capa	-12.2096
▁fuertemente	-12.2097
▁corría	-12.2098
▁huesos	-12.2108
▁eligier	-12.2108
▁frenos	-12.2111
▁respected	-12.2113
▁muevas	-12.2122
rain	-12.2122
▁huellas	-12.2122
▁remarks	-12.2123
▁uniforms	-12.2124
▁mueren	-12.2125
▁corredor	-12.2127
▁nicer	-12.2128
▁doors	-12.2128
▁pizzas	-12.213
rk	-12.213
▁encantaba	-12.2134
▁delete	-12.2134
▁discute	-12.2136
▁apuros	-12.2137
▁ignor	-12.2141
▁secreta	-12.2145
▁hablaste	-12.2145
▁laws	-12.2148
uela	-12.2151
▁affairs	-12.2151
debido	-12.2152
▁insulto	-12.2153
▁pensás	-12.2153
▁smiles	-12.216
▁buscado	-12.2161
▁beginners	-12.2166
▁separados	-12.2166
▁acuest	-12.2168
▁catching	-12.2172
▁owed	-12.2172
▁coman	-12.2174
▁equivocas	-12.2176
▁manga	-12.2193
▁robots	-12.2195
▁amamos	-12.2197
▁relatives	-12.2201
▁esperen	-12.2202
▁aguarda	-12.2203
ger	-12.2206
are	-12.2208
▁rayos	-12.221
ncé	-12.2217
▁cambies	-12.2224
▁telephoned	-12.2228
▁duermen	-12.2233
▁conozcas	-12.2239
▁delito	-12.2241
▁policías	-12.2246
ors	-12.2251
▁ways	-12.2257
▁drain	-12.226
▁esperad	-12.2263
▁sneeze	-12.227
tica	-12.2274
ie	-12.2279
▁opinions	-12.2287
▁hazme	-12.229
▁pedía	-12.2308
▁traslad	-12.2308
▁imagina	-12.2309
▁mejillas	-12.2312
▁deudas	-12.2312
▁adopta	-12.2314
▁twist	-12.2317
ments	-12.2317
▁pararon	-12.2339
▁directions	-12.2342
▁escalado	-12.2346
ring	-12.2352
▁seconds	-12.2357
wa	-12.2367
▁cheeks	-12.2371
▁taxis	-12.2375
▁empeora	-12.2375
▁cerdos	-12.2386
▁oculta	-12.2391
▁oídos	-12.241
▁hábitos	-12.2415
▁sow	-12.2425
rió	-12.2436
▁caros	-12.2436
▁billetes	-12.2475
zca	-12.2481
▁rat	-12.2483
▁verse	-12.2483
▁canto	-12.2483
▁estúpidos	-12.2487
▁ventas	-12.249
▁servicios	-12.2505
▁transfer	-12.2506
▁event	-12.2511
▁loses	-12.2514
▁objetivos	-12.2535
▁entren	-12.2536
arlo	-12.2538
▁derrota	-12.2538
▁celebr	-12.254
▁tomate	-12.2541
▁shirts	-12.2544
▁reforma	-12.2553
▁absorb	-12.2559
ándolo	-12.2568
▁vacías	-12.258
▁oscurecie	-12.258
▁curar	-12.2588
▁encogió	-12.26
▁conserva	-12.2602
▁cer	-12.2616
▁conduces	-12.2625
shed	-12.2626
▁aprenda	-12.2629
▁acts	-12.2629
▁sweets	-12.2638
▁exprimi	-12.2639
▁stifle	-12.2648
hanging	-12.2655
▁dividi	-12.2657
▁estudiara	-12.2658
▁fiestas	-12.2676
▁vet	-12.2686
eth	-12.2694
▁sigues	-12.2695
▁hab	-12.2718
▁bodas	-12.2731
▁memoriz	-12.2732
▁critic	-12.2735
▁eng	-12.274
▁ricas	-12.2761
▁incendios	-12.2761
▁agarra	-12.2774
▁modera	-12.2775
▁notable	-12.2776
▁equivocados	-12.278
10,000	-12.279
▁sue	-12.2804
▁triunf	-12.2842
arios	-12.2847
▁travels	-12.285
fic	-12.2862
▁orbit	-12.2875
hoy	-12.2884
osa	-12.2894
proxima	-12.2911
▁ci	-12.2915
▁soñado	-12.2933
eando	-12.2945
car	-12.2946
▁aburre	-12.2946
ny	-12.2948
▁cur	-12.2952
▁escuche	-12.2955
conoce	-12.296
▁respects	-12.2963
tendió	-12.2965
liz	-12.2968
read	-12.2974
▁conclusion	-12.2985
▁neumático	-12.2992
▁paisaje	-12.2992
▁nieto	-12.2993
▁candidato	-12.2996
▁elbow	-12.2996
▁inglesa	-12.2996
▁mosca	-12.2997
▁ingeniero	-12.2999
▁vehículo	-12.2999
▁abeja	-12.3001
▁affair	-12.3004
todo	-12.3005
▁plátano	-12.3005
▁pierda	-12.3006
▁supplie	-12.3007
▁degree	-12.3007
▁ingreso	-12.3008
▁customer	-12.3009
▁vegetable	-12.301
▁element	-12.3016
▁postul	-12.3017
▁sana	-12.3018
▁grade	-12.3018
preferirías	-12.3024
ders	-12.3024
▁diente	-12.3035
▁cepilla	-12.3039
▁incorrect	-12.3043
▁nervios	-12.3047
▁australian	-12.3056
▁trueno	-12.306
▁relativ	-12.3063
▁largos	-12.3064
▁asegura	-12.3064
resisti	-12.3076
▁invita	-12.3077
▁crow	-12.308
▁traig	-12.3082
▁toast	-12.3088
terminaste	-12.3089
entonces	-12.3091
buen	-12.3092
▁fuel	-12.3094
▁leas	-12.3095
▁hablará	-12.3096
made	-12.3097
plica	-12.3097
entiendes	-12.31
estudias	-12.31
▁item	-12.3101
fue	-12.3101
cola	-12.3102
may	-12.3102
▁camel	-12.3103
recieron	-12.3103
▁moments	-12.3106
seguimos	-12.3112
irió	-12.3112
▁horizon	-12.3117
▁afecta	-12.3118
▁recover	-12.3124
▁detén	-12.3124
▁confuse	-12.3126
▁swallow	-12.3126
▁maní	-12.3128
▁enti	-12.3128
▁impact	-12.3128
▁discover	-12.3128
▁valid	-12.3131
▁comunicar	-12.3131
▁fabrica	-12.3132
▁branch	-12.3132
▁cazador	-12.3132
▁zapat	-12.3132
▁artificial	-12.3132
▁hog	-12.3133
cimiento	-12.3133
▁immediate	-12.3135
▁mastica	-12.3136
árselo	-12.3137
▁threat	-12.3137
▁carbon	-12.3138
▁cigar	-12.3138
▁averig	-12.3138
▁pulse	-12.3139
▁inclina	-12.3139
▁process	-12.3139
▁slip	-12.3139
▁proverb	-12.3139
▁cuelg	-12.3139
▁afterwards	-12.3139
▁ahorita	-12.3139
▁amistoso	-12.3139
▁appeal	-12.3139
▁aprobación	-12.3139
▁arbusto	-12.3139
▁asignatura	-12.3139
▁autobuses	-12.3139
▁awkward	-12.3139
▁baboon	-12.3139
▁bancarrota	-12.3139
▁berlín	-12.3139
▁cajero	-12.3139
▁campamento	-12.3139
▁carácter	-12.3139
▁cerezo	-12.3139
▁chimney	-12.3139
▁cliff	-12.3139
▁clumsy	-12.3139
▁compliment	-12.3139
▁concierne	-12.3139
▁demonio	-12.3139
▁desconozco	-12.3139
▁devastated	-12.3139
▁elderly	-12.3139
▁equilibrio	-12.3139
▁erigi	-12.3139
▁escándalo	-12.3139
▁espagueti	-12.3139
▁exaggerate	-12.3139
▁expose	-12.3139
▁feroz	-12.3139
▁flauta	-12.3139
▁garlic	-12.3139
▁gossip	-12.3139
▁grammatical	-12.3139
▁idéntico	-12.3139
▁incumbe	-12.3139
▁injusta	-12.3139
▁insensitive	-12.3139
▁intelligence	-12.3139
▁intervened	-12.3139
▁journey	-12.3139
▁kyushu	-12.3139
▁maletín	-12.3139
▁malvado	-12.3139
▁maquillaje	-12.3139
▁misunderstood	-12.3139
▁mysterious	-12.3139
▁negative	-12.3139
▁nephew	-12.3139
▁niñez	-12.3139
▁ostras	-12.3139
▁peluquería	-12.3139
▁platform	-12.3139
▁pollution	-12.3139
▁postcard	-12.3139
▁privacy	-12.3139
▁propina	-12.3139
▁pruebe	-12.3139
▁práctico	-12.3139
▁pulso	-12.3139
▁póquer	-12.3139
▁quebró	-12.3139
▁satisfactory	-12.3139
▁seatbelt	-12.3139
▁shadow	-12.3139
▁siblings	-12.3139
▁sobrino	-12.3139
▁solitario	-12.3139
▁spinach	-12.3139
▁suegra	-12.3139
▁swept	-12.3139
▁símbolo	-12.3139
▁tatuaje	-12.3139
▁thieves	-12.3139
▁tobillo	-12.3139
▁translating	-12.3139
▁translator	-12.3139
▁tropas	-12.3139
▁universitaria	-12.3139
▁votó	-12.3139
▁válido	-12.3139
▁workaholic	-12.3139
▁agricultura	-12.3139
▁confesar	-12.3139
▁conservative	-12.3139
▁elegí	-12.3139
▁extent	-12.3139
▁hierve	-12.3139
▁pareciera	-12.3139
▁pediste	-12.3139
▁prosper	-12.3139
▁shelter	-12.3139
▁biología	-12.3139
▁cease	-12.3139
▁cinta	-12.3139
▁manteca	-12.3139
▁parecida	-12.3139
▁profundidad	-12.3139
▁shortcut	-12.3139
▁snack	-12.3139
▁sneak	-12.3139
▁ankle	-12.3139
▁biology	-12.3139
▁bride	-12.3139
▁cerradura	-12.3139
▁crítica	-12.3139
▁pateó	-12.3139
▁toothache	-12.3139
▁muriera	-12.3139
▁plaza	-12.3139
▁semester	-12.3139
▁democratic	-12.3139
▁diversión	-12.3139
▁eternidad	-12.3139
▁kingdom	-12.3139
▁qualified	-12.3139
firiendo	-12.3139
▁intervino	-12.3139
▁thread	-12.3139
▁exige	-12.3139
▁heaven	-12.3139
▁bunk	-12.3139
▁melted	-12.314
▁clapped	-12.314
▁profit	-12.314
▁yawn	-12.314
▁cayeron	-12.314
▁mentiste	-12.314
▁unsure	-12.314
▁guitarist	-12.314
▁perrito	-12.314
▁philosophy	-12.314
▁volcán	-12.314
▁banjo	-12.314
▁loyal	-12.314
▁snore	-12.314
▁llévate	-12.314
▁generación	-12.314
▁desesperado	-12.314
▁beef	-12.314
ogen	-12.314
▁seafood	-12.314
▁cueste	-12.314
▁direcciones	-12.314
▁recibe	-12.314
▁respondido	-12.314
▁perdóname	-12.314
▁lloro	-12.314
▁corregi	-12.314
▁abrazó	-12.314
▁download	-12.314
▁gentle	-12.314
▁surgeon	-12.314
▁heavier	-12.314
▁colgando	-12.314
▁factura	-12.314
▁hiking	-12.314
▁esquiando	-12.314
▁numero	-12.314
▁atleta	-12.314
▁roca	-12.314
▁redacción	-12.314
▁mojada	-12.314
▁descubrimiento	-12.314
▁dolía	-12.314
▁puro	-12.314
▁tornillo	-12.314
▁dibujó	-12.314
▁permitted	-12.314
▁cattle	-12.314
▁depriv	-12.314
▁obligation	-12.3141
▁statement	-12.3141
▁recto	-12.3141
▁conducido	-12.3141
▁esencial	-12.3141
▁shaking	-12.3141
▁meditando	-12.3141
▁marina	-12.3141
▁azar	-12.3141
▁conclusión	-12.3141
▁interese	-12.3141
▁trasero	-12.3141
▁doloroso	-12.3141
▁reparado	-12.3141
▁seventy	-12.3142
▁temblaba	-12.3142
▁stingy	-12.3142
▁realista	-12.3142
▁consideration	-12.3142
▁amarga	-12.3142
▁tercio	-12.3142
▁hometown	-12.3142
▁revelar	-12.3142
▁disgustado	-12.3142
▁rapidly	-12.3142
▁sacaste	-12.3142
▁levántate	-12.3142
▁gritando	-12.3142
▁disculparse	-12.3142
▁adquir	-12.3142
▁fiable	-12.3142
▁capturado	-12.3143
▁blank	-12.3143
▁costoso	-12.3143
▁choque	-12.3143
▁continúe	-12.3143
▁jesús	-12.3143
▁cachorro	-12.3143
▁manual	-12.3143
▁aferr	-12.3143
▁ahogarse	-12.3143
▁subestimes	-12.3143
▁hervir	-12.3143
▁patada	-12.3144
▁afilado	-12.3144
▁descalzo	-12.3144
▁darkness	-12.3144
▁defensa	-12.3144
▁melod	-12.3144
▁established	-12.3145
▁atasco	-12.3145
▁tumbado	-12.3145
▁slower	-12.3145
▁bombarde	-12.3146
▁wealthy	-12.3146
▁mortal	-12.3147
▁taxista	-12.3147
▁regularmente	-12.3147
▁regañó	-12.3147
▁matando	-12.3147
▁derrotado	-12.3147
▁suene	-12.3147
▁divertirse	-12.3147
▁ocurrirá	-12.3148
▁misled	-12.3148
▁deprisa	-12.3148
▁fíj	-12.3148
▁pole	-12.3149
▁carbono	-12.3149
ong	-12.3149
▁horizonte	-12.3149
▁arreglado	-12.3149
▁amused	-12.315
▁alejado	-12.315
▁culparía	-12.315
▁load	-12.315
▁stunning	-12.315
▁apagado	-12.315
▁regresará	-12.315
▁spoiled	-12.3151
▁objection	-12.3151
▁ahogó	-12.3151
▁lavado	-12.3152
▁parecé	-12.3153
▁dibujar	-12.3154
▁limited	-12.3154
▁politely	-12.3154
▁vámonos	-12.3154
▁associate	-12.3155
▁confirmed	-12.3155
▁besaron	-12.3155
▁apagaron	-12.3155
▁delivered	-12.3155
▁levantaron	-12.3156
▁fracasó	-12.3156
▁devolveré	-12.3156
▁buscamos	-12.3156
▁sorbo	-12.3156
▁enseñado	-12.3157
▁desire	-12.3157
▁perform	-12.3157
▁brillaba	-12.3158
▁alegrará	-12.3159
▁soportarlo	-12.3159
▁youngest	-12.3159
▁disgusted	-12.316
▁referr	-12.316
▁necesitás	-12.3161
▁blowing	-12.3161
▁pese	-12.3161
▁criminales	-12.3161
▁colgado	-12.3161
▁celosa	-12.3161
▁filete	-12.3162
▁rendir	-12.3163
clined	-12.3164
▁má	-12.3164
▁refieres	-12.3164
▁patatas	-12.3164
▁asiáticos	-12.3164
▁empe	-12.3164
▁considerable	-12.3166
▁conseguimos	-12.3167
▁satisfactoria	-12.3168
▁culpando	-12.3168
▁qu	-12.3169
▁mago	-12.3171
▁athlete	-12.3173
▁principales	-12.3173
▁behaved	-12.3174
▁vía	-12.3174
▁nota	-12.3175
▁copies	-12.3176
▁criticize	-12.3178
▁señaló	-12.3179
▁exacta	-12.3179
▁marineros	-12.318
▁sailors	-12.318
▁escondidas	-12.3181
▁cerré	-12.3182
▁ruidoso	-12.3183
▁calmado	-12.3183
▁organized	-12.3183
▁aliviar	-12.3184
▁amaré	-12.3186
▁tubo	-12.3188
▁interna	-12.3188
▁gire	-12.3189
▁paré	-12.3189
▁pagaron	-12.3191
▁sec	-12.3191
▁menores	-12.3191
▁atrae	-12.3193
▁prestarme	-12.3193
▁responda	-12.3194
▁terminaste	-12.3194
▁patiently	-12.3195
▁responded	-12.3196
▁palomas	-12.3196
▁interrumpas	-12.3197
▁clon	-12.3198
▁eve	-12.3199
▁tooth	-12.32
▁terminaron	-12.32
▁cruce	-12.3204
▁jueguen	-12.3205
▁cambiaré	-12.3207
▁seguiré	-12.3209
▁mow	-12.3209
▁mantendrá	-12.3214
▁bebas	-12.3217
▁descubre	-12.3217
▁permanece	-12.3219
▁discussing	-12.322
▁tool	-12.3222
▁meditar	-12.3225
▁distraer	-12.3225
▁congelado	-12.3226
▁aceptaría	-12.3226
▁z	-12.323
enzo	-12.323
▁mejorado	-12.3231
▁mienten	-12.3234
▁mates	-12.3236
▁arruinar	-12.3239
▁tenista	-12.3241
▁acababa	-12.3246
▁weeds	-12.3247
▁landing	-12.3251
▁costear	-12.3252
▁vision	-12.3257
▁mag	-12.3257
▁vuelves	-12.3257
▁voices	-12.3258
cked	-12.3258
▁rec	-12.3269
▁sip	-12.3272
▁escribirle	-12.3272
▁contentos	-12.3277
▁hitch	-12.3287
▁alter	-12.3289
▁coja	-12.3291
▁visitarte	-12.3292
rro	-12.3293
▁monkeys	-12.3294
▁granjeros	-12.3294
▁vitamins	-12.3294
▁vitaminas	-12.3296
▁torn	-12.3307
▁decís	-12.331
▁trucos	-12.3311
▁heating	-12.3311
▁antiques	-12.3312
▁provocar	-12.3318
lena	-12.3323
▁pork	-12.3325
▁sheets	-12.3326
fundió	-12.3327
▁weighs	-12.3329
▁usamos	-12.3329
▁sacrifice	-12.333
▁mall	-12.333
▁exceptional	-12.3331
▁ja	-12.3335
▁logra	-12.3336
▁farmers	-12.3344
▁sentirá	-12.3348
▁dejarme	-12.3349
▁hablen	-12.335
▁indian	-12.3351
▁principiantes	-12.336
▁abrirá	-12.3368
criado	-12.3373
000	-12.3374
▁sumo	-12.3374
▁voluntarios	-12.3377
nada	-12.3385
▁arresto	-12.3392
▁du	-12.3394
▁acos	-12.3395
▁visito	-12.3396
▁classic	-12.3401
▁consultar	-12.3403
▁cobra	-12.3417
▁sordos	-12.3426
▁ban	-12.3429
▁fingir	-12.3429
▁youth	-12.3429
▁oyes	-12.3438
▁cabras	-12.3442
▁enamor	-12.3447
ates	-12.3448
▁partidos	-12.345
▁enterr	-12.345
▁cómodos	-12.345
▁gallinas	-12.3459
▁medicamentos	-12.3459
▁plates	-12.3474
▁demands	-12.3476
▁files	-12.3476
▁imports	-12.348
▁freed	-12.3483
istic	-12.3492
▁weekends	-12.3497
▁infla	-12.3499
▁apresurar	-12.3499
▁harán	-12.3513
▁imitate	-12.3527
▁hablaron	-12.353
▁tanque	-12.3534
ison	-12.3537
▁masa	-12.3543
▁recoge	-12.3555
▁tomates	-12.356
▁peligrosos	-12.3563
▁represent	-12.3565
▁criminals	-12.3576
ities	-12.358
▁suficientes	-12.3584
▁garantiza	-12.3594
▁vendrías	-12.3613
parked	-12.3615
cre	-12.362
▁arregle	-12.3622
▁owned	-12.3623
▁boletos	-12.3626
▁ubica	-12.3627
▁estabais	-12.3629
▁hoyo	-12.3632
▁parara	-12.3637
portable	-12.365
tus	-12.3653
▁despiérta	-12.3657
▁remembering	-12.3667
▁ésas	-12.3676
▁afortunados	-12.3676
▁intentions	-12.3676
▁inventar	-12.3678
▁cercanos	-12.3685
▁sucedier	-12.3689
▁bienvenidos	-12.3693
▁demandar	-12.3708
▁absorbe	-12.3709
▁mirad	-12.371
▁vari	-12.371
▁troubles	-12.3724
ko	-12.3737
▁cuidadosos	-12.3746
line	-12.3747
▁remembers	-12.3748
▁guarde	-12.3754
ú	-12.3756
▁reform	-12.3762
▁skirts	-12.3767
▁bro	-12.3767
cé	-12.3768
▁costo	-12.3768
▁dormidos	-12.3774
▁copias	-12.3775
if	-12.3778
▁muñecas	-12.3778
▁camisas	-12.379
▁acusa	-12.3808
▁gradua	-12.3816
▁mars	-12.382
▁borr	-12.3845
▁cas	-12.3849
▁bites	-12.3853
▁arriesg	-12.3863
▁castigar	-12.3864
▁pertene	-12.3871
pó	-12.3882
marily	-12.3882
▁expresa	-12.3895
▁idiots	-12.3899
▁pegar	-12.3915
▁pil	-12.3917
▁humans	-12.3922
▁aves	-12.3924
tal	-12.3927
▁líneas	-12.3932
▁esperas	-12.3936
▁admite	-12.3941
▁recomiend	-12.3953
▁proporcionar	-12.396
▁burlar	-12.3977
▁reconsider	-12.3981
dicated	-12.3989
▁frases	-12.4003
▁pele	-12.4014
▁puntos	-12.4015
▁gr	-12.4019
▁levantas	-12.4029
▁vibra	-12.4042
nme	-12.4049
▁comprendí	-12.4055
▁limpie	-12.4062
▁urge	-12.4063
▁irás	-12.4067
omo	-12.4067
ix	-12.407
▁fare	-12.4071
▁elevado	-12.4072
▁lata	-12.4076
ático	-12.4092
▁abr	-12.4115
▁atra	-12.4147
▁reparti	-12.4147
talo	-12.415
quis	-12.416
primió	-12.4184
deja	-12.4184
vendrá	-12.4204
▁cheer	-12.4207
▁aprovech	-12.4215
▁transmit	-12.4222
▁investment	-12.4243
▁cubo	-12.4243
▁oiga	-12.4243
▁arruinado	-12.4245
▁castigado	-12.4245
▁movimiento	-12.4246
▁valioso	-12.4246
▁avance	-12.4246
▁cristiano	-12.4249
▁string	-12.4249
▁blonde	-12.4249
▁christian	-12.425
▁mascota	-12.4251
▁disparo	-12.4252
▁apuro	-12.4254
▁cloud	-12.4255
melo	-12.4255
rected	-12.4257
▁oreja	-12.4257
▁wire	-12.4258
▁consecuencia	-12.4258
▁verdura	-12.4259
▁pista	-12.4259
▁nube	-12.4259
▁sock	-12.4259
rolled	-12.426
▁codo	-12.4266
▁reuni	-12.4268
▁pregunt	-12.4271
▁jog	-12.4274
▁docena	-12.428
▁congela	-12.4287
omas	-12.4289
▁moderno	-12.4292
illo	-12.4293
▁aprueb	-12.4297
▁invento	-12.4299
espera	-12.43
▁adelanta	-12.4314
orge	-12.4328
▁magnet	-12.4333
confident	-12.434
alguno	-12.4341
debo	-12.4341
déjame	-12.4342
▁agent	-12.4342
pasas	-12.4345
▁pague	-12.4345
10.	-12.4349
▁receiv	-12.4352
voy	-12.4354
▁cared	-12.4355
▁racist	-12.4361
▁rin	-12.4366
▁annoy	-12.4367
▁agradecer	-12.437
▁aparece	-12.4371
▁ceder	-12.4372
▁compete	-12.4373
▁concentr	-12.4374
▁deceive	-12.4374
estamos	-12.4375
rich	-12.4376
▁spoil	-12.4377
▁regar	-12.4377
▁offend	-12.4377
▁betray	-12.4377
▁prohíb	-12.438
▁coast	-12.4381
▁modest	-12.4382
▁chaval	-12.4382
▁implica	-12.4383
bamos	-12.4383
▁neat	-12.4384
▁accu	-12.4384
▁gene	-12.4385
▁assemble	-12.4385
▁compani	-12.4385
▁apropiada	-12.4386
▁numb	-12.4387
▁plena	-12.4387
▁salvado	-12.4388
▁creci	-12.4389
▁sharpen	-12.4389
▁vietnam	-12.4389
▁inferior	-12.4389
▁knit	-12.4389
▁dinosaur	-12.4389
▁react	-12.4389
▁tendenc	-12.4389
▁differ	-12.4389
▁contigu	-12.4389
▁exhilarat	-12.4389
▁blunt	-12.4389
▁préstame	-12.4389
▁titanic	-12.4389
▁aburrimiento	-12.4389
▁alemanes	-12.4389
▁almorcé	-12.4389
▁amistosa	-12.4389
▁atascado	-12.4389
▁atómica	-12.4389
▁beethoven	-12.4389
▁bikini	-12.4389
▁cadáver	-12.4389
▁cafeteria	-12.4389
▁calcetín	-12.4389
▁camiseta	-12.4389
▁cementerio	-12.4389
▁champú	-12.4389
▁chatarra	-12.4389
▁cintura	-12.4389
▁comprueb	-12.4389
▁comunicación	-12.4389
▁conversando	-12.4389
▁cotton	-12.4389
▁crítico	-12.4389
▁cycling	-12.4389
▁december	-12.4389
▁departure	-12.4389
▁descartar	-12.4389
▁desnuda	-12.4389
▁despistado	-12.4389
▁destination	-12.4389
▁destruida	-12.4389
▁diciembre	-12.4389
▁diplomática	-12.4389
▁dumped	-12.4389
▁ecuador	-12.4389
▁einstein	-12.4389
▁enormous	-12.4389
▁esclavitud	-12.4389
▁escuchá	-12.4389
▁estadística	-12.4389
▁flies	-12.4389
▁fractur	-12.4389
▁francamente	-12.4389
▁gloomy	-12.4389
▁gramatical	-12.4389
▁guiso	-12.4389
▁haunted	-12.4389
▁hobbies	-12.4389
▁incurable	-12.4389
▁industry	-12.4389
▁irresponsable	-12.4389
▁jueves	-12.4389
▁juventud	-12.4389
▁lipstick	-12.4389
▁lloré	-12.4389
▁llovía	-12.4389
▁madrid	-12.4389
▁mariposa	-12.4389
▁monedero	-12.4389
▁monster	-12.4389
▁monstruo	-12.4389
▁muelle	-12.4389
▁muñeco	-12.4389
▁nagano	-12.4389
▁nagoya	-12.4389
▁narices	-12.4389
▁naughty	-12.4389
▁negativo	-12.4389
▁neglect	-12.4389
▁nixon	-12.4389
▁niñita	-12.4389
▁nocturno	-12.4389
▁noviembre	-12.4389
▁obama	-12.4389
▁origen	-12.4389
▁overweight	-12.4389
▁pathetic	-12.4389
▁penicil	-12.4389
▁pertenencias	-12.4389
▁pilchas	-12.4389
▁policies	-12.4389
▁proceso	-12.4389
▁renuncié	-12.4389
▁repisa	-12.4389
▁respetuoso	-12.4389
▁ribbon	-12.4389
▁ridícula	-12.4389
▁rumbo	-12.4389
▁satellite	-12.4389
▁sauce	-12.4389
▁shark	-12.4389
▁shibuya	-12.4389
▁shinano	-12.4389
▁sidewalk	-12.4389
▁snuggle	-12.4389
▁sobresaliente	-12.4389
▁sobrina	-12.4389
▁statistic	-12.4389
▁stroke	-12.4389
▁supply	-12.4389
▁surface	-12.4389
▁temporal	-12.4389
▁testamento	-12.4389
▁thursday	-12.4389
▁tobacco	-12.4389
▁tuviese	-12.4389
▁técnica	-12.4389
▁título	-12.4389
▁uneasy	-12.4389
▁unnecessary	-12.4389
▁valiosa	-12.4389
▁vanidoso	-12.4389
▁vaqueros	-12.4389
▁virtud	-12.4389
▁virtue	-12.4389
▁voces	-12.4389
▁wisdom	-12.4389
▁withdrew	-12.4389
▁automático	-12.4389
▁blink	-12.4389
▁cacahu	-12.4389
▁context	-12.4389
▁encaja	-12.4389
▁entorno	-12.4389
▁holanda	-12.4389
▁nasty	-12.4389
▁pochoclo	-12.4389
▁probabilidad	-12.4389
▁sharing	-12.4389
▁tequila	-12.4389
▁watermelon	-12.4389
▁culpó	-12.4389
▁cántaros	-12.4389
▁sector	-12.4389
▁waist	-12.4389
▁accurate	-12.4389
▁amenazó	-12.4389
▁automatically	-12.4389
▁delicate	-12.4389
▁explotó	-12.4389
▁hydr	-12.4389
▁palillos	-12.4389
▁apagué	-12.4389
▁máscara	-12.4389
▁repetí	-12.4389
▁basic	-12.4389
▁delfines	-12.4389
▁northern	-12.4389
▁quote	-12.4389
▁recibo	-12.4389
▁rutina	-12.4389
▁tejiendo	-12.4389
órale	-12.4389
▁calculadora	-12.4389
▁nintendo	-12.4389
▁refugiados	-12.4389
▁desconcertado	-12.4389
▁enfrí	-12.4389
▁steam	-12.4389
▁thailand	-12.4389
▁youtube	-12.4389
▁connection	-12.4389
▁ficción	-12.4389
▁juzgue	-12.4389
▁organization	-12.4389
▁setenta	-12.4389
▁enlace	-12.4389
▁fiction	-12.4389
▁loving	-12.4389
▁unwilling	-12.4389
▁firewood	-12.439
▁limón	-12.439
▁huracán	-12.439
▁natación	-12.439
▁clue	-12.439
▁griega	-12.439
▁algodón	-12.439
▁consciencia	-12.439
▁creative	-12.439
▁tailandia	-12.439
▁memories	-12.439
▁organización	-12.439
▁tradición	-12.439
▁flojo	-12.439
▁activa	-12.439
▁escondas	-12.439
▁invención	-12.439
▁dinosaurio	-12.439
▁huelo	-12.439
▁versión	-12.439
▁encontremos	-12.439
▁almorzado	-12.439
▁interrumpió	-12.439
▁partner	-12.439
▁community	-12.439
▁fuéramos	-12.439
▁compass	-12.439
▁guitarrista	-12.439
▁carelessness	-12.439
▁formula	-12.439
▁agosto	-12.439
▁ocurriendo	-12.439
▁calculator	-12.439
▁nacionalidad	-12.439
▁abrazo	-12.439
▁cupboard	-12.439
▁quédese	-12.439
▁consciousness	-12.439
▁sunlight	-12.439
▁tremble	-12.439
▁agradecimiento	-12.439
▁knitting	-12.439
▁exhibition	-12.439
▁estallar	-12.439
▁previous	-12.439
▁automáticamente	-12.439
▁suertudo	-12.439
▁curb	-12.439
▁salesman	-12.439
▁bombones	-12.439
▁govern	-12.439
▁ipod	-12.439
▁escondí	-12.439
▁deadline	-12.439
▁preocupo	-12.439
▁reap	-12.439
▁caramelo	-12.439
▁aplicación	-12.439
▁descuidado	-12.439
▁instalar	-12.439
▁existence	-12.4391
▁murmurando	-12.4391
▁agradecería	-12.4391
▁costosa	-12.4391
▁elija	-12.4391
▁preocupaciones	-12.4391
▁relajarse	-12.4391
▁pronunciation	-12.4391
▁arco	-12.4391
▁pulsar	-12.4391
▁liado	-12.4391
▁espantoso	-12.4391
▁critical	-12.4391
▁disparado	-12.4391
▁prediction	-12.4391
▁fundamental	-12.4391
▁fracasado	-12.4391
semeja	-12.4391
▁tempt	-12.4391
▁váyase	-12.4391
▁cepillo	-12.4392
▁disfrazado	-12.4392
▁title	-12.4392
▁motion	-12.4392
▁llamá	-12.4392
▁chairman	-12.4392
hower	-12.4392
▁motivado	-12.4392
▁feriado	-12.4392
▁rebelde	-12.4392
▁ninja	-12.4393
▁robé	-12.4393
▁perlas	-12.4393
▁carné	-12.4393
▁policemen	-12.4393
▁doubtful	-12.4393
▁fuss	-12.4393
▁alfabeto	-12.4393
▁cirujano	-12.4393
▁flock	-12.4393
▁distingue	-12.4393
▁poli	-12.4393
▁luchando	-12.4393
▁trasera	-12.4393
▁temporary	-12.4393
▁indignado	-12.4394
▁daily	-12.4394
▁querrá	-12.4394
▁dental	-12.4394
▁dependable	-12.4394
▁lamentable	-12.4394
▁cardíaco	-12.4394
▁pues	-12.4394
▁furiosa	-12.4394
stén	-12.4394
inició	-12.4395
▁calentador	-12.4395
dney	-12.4395
▁ruego	-12.4395
▁version	-12.4396
▁desprecio	-12.4396
▁fantástico	-12.4396
▁pescando	-12.4396
▁rodeos	-12.4396
hablá	-12.4397
▁croa	-12.4397
▁comprando	-12.4397
▁artificiales	-12.4397
legó	-12.4397
▁mandado	-12.4398
▁superficial	-12.4398
▁viking	-12.4398
▁fabricado	-12.4398
▁firmemente	-12.4398
▁confront	-12.4399
▁makeup	-12.4399
▁signal	-12.4399
▁print	-12.4399
▁ocup	-12.4399
▁former	-12.4399
▁lazie	-12.4399
▁gay	-12.44
▁toneladas	-12.44
▁destinad	-12.44
▁llámalo	-12.44
▁costaría	-12.44
▁americana	-12.4401
▁preso	-12.4401
▁feder	-12.4401
▁voyage	-12.4401
▁duck	-12.4401
▁gata	-12.4401
▁periodo	-12.4403
▁pensamos	-12.4403
▁ileso	-12.4403
▁abandonaron	-12.4403
▁logic	-12.4404
▁presté	-12.4404
going	-12.4404
▁corporal	-12.4404
▁fastest	-12.4405
▁counter	-12.4405
▁exacto	-12.4405
▁focused	-12.4406
▁perdonaré	-12.4406
▁somehow	-12.4406
▁tape	-12.4406
▁caída	-12.4406
▁molestado	-12.4406
▁freak	-12.4407
▁enfadarse	-12.4407
▁fry	-12.4408
▁violento	-12.4408
▁absurda	-12.4408
▁accomplished	-12.4409
▁cuba	-12.4409
▁navegar	-12.4409
▁gray	-12.441
▁delgada	-12.441
▁ruta	-12.4411
▁apostar	-12.4411
▁visitarnos	-12.4411
▁create	-12.4412
▁criticized	-12.4412
▁ju	-12.4412
▁nik	-12.4412
▁moverse	-12.4413
▁acostarte	-12.4413
▁funcionando	-12.4414
▁guardaré	-12.4414
▁niece	-12.4415
▁costado	-12.4416
▁evitarlo	-12.4417
▁visado	-12.4417
▁intentaron	-12.4418
▁regrets	-12.4418
▁tame	-12.4418
bérmelo	-12.4418
▁flute	-12.4418
▁racista	-12.4418
▁attic	-12.4418
▁reserved	-12.4419
▁entramos	-12.442
▁vuelan	-12.442
hea	-12.442
▁darker	-12.4421
▁pacientemente	-12.4422
▁hail	-12.4422
▁sillón	-12.4422
▁posibilidades	-12.4423
▁conflicto	-12.4423
▁pela	-12.4425
▁bay	-12.4426
▁conocés	-12.4427
▁examined	-12.4427
vives	-12.4428
▁quedaste	-12.4428
▁besarte	-12.4429
▁ironing	-12.4431
▁salty	-12.4434
isen	-12.4434
▁lifted	-12.4435
▁maintain	-12.4435
▁cacahuetes	-12.4436
▁encontraremos	-12.4436
▁cogeré	-12.4436
▁nadador	-12.4437
▁diferenciar	-12.4437
▁destaca	-12.4437
▁picky	-12.4439
▁pasteles	-12.444
▁contradict	-12.444
▁ganaron	-12.4441
▁apretar	-12.4444
▁terriblemente	-12.4445
▁farther	-12.4445
▁errónea	-12.4445
▁eliminar	-12.4446
▁familiares	-12.4447
▁mudo	-12.4449
▁hip	-12.445
rado	-12.445
▁stays	-12.4451
▁visitamos	-12.4451
▁relaxing	-12.4452
▁mide	-12.4453
▁dolphins	-12.4454
▁galletitas	-12.4454
▁sábanas	-12.4454
▁colegas	-12.4454
▁obeyed	-12.4455
▁comporta	-12.4456
▁usarlo	-12.4457
▁bridges	-12.4459
pensás	-12.446
▁ganamos	-12.4461
▁differently	-12.4464
▁perd	-12.4465
▁gotea	-12.4465
▁llamarlo	-12.4467
▁strangely	-12.4468
▁goma	-12.4468
▁admito	-12.4469
▁intercambiar	-12.4469
▁islam	-12.4469
▁terroristas	-12.4474
▁creerle	-12.4474
▁cuidarte	-12.4477
▁libras	-12.4477
▁obedece	-12.4479
▁creés	-12.4482
▁esperaron	-12.4485
▁runner	-12.4487
▁armada	-12.449
▁recupere	-12.4491
▁ganará	-12.4492
▁dormi	-12.4494
▁jugaban	-12.4504
▁hacés	-12.451
▁parientes	-12.4511
▁bones	-12.4513
▁cri	-12.4516
▁confundid	-12.4516
▁pandas	-12.4523
term	-12.4524
▁pararme	-12.4526
▁disparos	-12.4529
▁realiza	-12.4529
▁ayudaron	-12.453
▁faults	-12.4531
▁llamarte	-12.4533
▁ajo	-12.4534
▁vean	-12.4535
▁encontraría	-12.4539
▁mini	-12.4539
comes	-12.4541
queda	-12.4552
▁deba	-12.4553
▁wa	-12.4555
▁reported	-12.4562
▁víctimas	-12.4566
▁pap	-12.4566
▁limits	-12.4567
nic	-12.4569
cos	-12.4573
▁enseñe	-12.4579
▁triple	-12.4579
▁bob	-12.458
▁entiendas	-12.4584
▁male	-12.4586
dó	-12.4599
▁blankets	-12.4604
▁archivos	-12.4604
▁aterrizar	-12.4609
▁ganaría	-12.4609
▁vidas	-12.4613
▁dejarle	-12.4617
▁dejamos	-12.4621
▁fáciles	-12.4622
▁diamantes	-12.4622
▁pigs	-12.4622
▁cables	-12.4623
▁sabrás	-12.4623
▁ending	-12.463
▁descansa	-12.463
▁aproxima	-12.4631
▁competente	-12.4632
▁atrac	-12.4638
▁chocolates	-12.4639
▁goats	-12.464
▁vencer	-12.4641
▁vuelvan	-12.4647
ríamos	-12.4647
▁olvid	-12.465
▁arroj	-12.4651
▁marks	-12.4654
▁mensajes	-12.4657
▁mosquitos	-12.4661
▁mol	-12.4661
▁varía	-12.4665
▁helada	-12.4667
▁brains	-12.4679
awa	-12.4681
▁tin	-12.4683
ache	-12.4684
ino	-12.4686
dico	-12.4691
▁consulta	-12.4692
▁afueras	-12.4694
▁pelos	-12.4696
▁roman	-12.4696
▁ayudase	-12.4701
▁aterroriza	-12.4704
▁cuentos	-12.4717
▁ruins	-12.4718
▁casara	-12.4719
▁hoteles	-12.4731
▁dejad	-12.4737
▁forth	-12.4739
▁parecidos	-12.4755
▁disponibles	-12.4755
▁doctora	-12.4765
▁ayuden	-12.4769
▁debts	-12.4772
▁aprendes	-12.4777
▁tocas	-12.4786
▁ayudamos	-12.4794
devuélveme	-12.4795
▁altas	-12.4801
értelo	-12.4806
▁conseguirá	-12.4806
▁copas	-12.481
▁sostiene	-12.4812
▁actions	-12.4812
▁lé	-12.4815
▁tube	-12.4819
▁pastor	-12.484
▁produces	-12.4843
▁serlo	-12.4847
▁apt	-12.4849
▁mejore	-12.4852
▁costar	-12.4857
lin	-12.4859
▁ships	-12.4864
▁alquila	-12.4865
▁aspectos	-12.4869
▁materials	-12.4888
▁interests	-12.489
▁condena	-12.4891
sería	-12.4893
▁negociar	-12.4895
▁training	-12.4896
▁goals	-12.4907
▁calcul	-12.4913
aid	-12.4922
▁ordenar	-12.4935
▁castiga	-12.4937
▁procur	-12.4943
▁besado	-12.4954
▁extendi	-12.4961
▁echas	-12.4962
jones	-12.4962
▁patients	-12.4971
▁limpiara	-12.4978
▁pes	-12.4979
▁preocupar	-12.4981
▁recort	-12.4982
▁abiertos	-12.4985
▁fo	-12.499
▁barcos	-12.5008
▁presum	-12.5025
naciones	-12.5039
▁coste	-12.5044
▁cumpl	-12.5058
▁tr	-12.5067
▁rooms	-12.5068
preció	-12.5068
ight	-12.5073
ah	-12.5078
▁recompensa	-12.5079
▁holes	-12.5082
▁ache	-12.5085
▁v	-12.5086
▁casos	-12.509
▁despe	-12.5096
▁busque	-12.5105
▁caballeros	-12.5105
▁acaban	-12.5108
▁bombs	-12.511
▁entres	-12.5113
aza	-12.5113
▁salva	-12.5116
▁fondos	-12.5117
▁opens	-12.5117
▁skip	-12.5127
vando	-12.513
▁coc	-12.5137
▁poné	-12.5138
▁chi	-12.516
▁chup	-12.5167
pagando	-12.5174
tenía	-12.5176
▁dolls	-12.5196
▁exists	-12.5201
▁favoritos	-12.5204
▁porqué	-12.5207
▁forms	-12.5209
▁blancas	-12.5219
▁levantan	-12.523
▁contesta	-12.5238
▁flights	-12.5239
▁representa	-12.5241
▁esperan	-12.5242
▁detesta	-12.525
▁desorden	-12.5252
bel	-12.5253
ain	-12.5255
ondas	-12.5259
ai	-12.5265
▁cubr	-12.5275
▁pint	-12.5276
tely	-12.5277
▁medias	-12.5284
ping	-12.529
▁nadaba	-12.53
▁escapa	-12.5317
▁cantantes	-12.5319
▁points	-12.5327
icked	-12.5327
▁aspir	-12.534
▁singers	-12.5342
▁vestidos	-12.5367
▁formar	-12.5368
yendo	-12.5368
▁oje	-12.5376
▁cerradas	-12.5379
▁tomara	-12.5384
gar	-12.5385
▁intentas	-12.5392
▁realiz	-12.5393
▁raises	-12.5403
▁barri	-12.5406
▁preparados	-12.5419
▁frances	-12.5422
▁islands	-12.5422
idos	-12.5449
▁principios	-12.5458
▁tí	-12.5459
▁unir	-12.546
eight	-12.5466
▁pl	-12.5475
▁banks	-12.5482
▁console	-12.551
escrib	-12.551
ps	-12.5515
seguro	-12.5522
toca	-12.5523
▁uniform	-12.5523
▁humillad	-12.5529
▁desear	-12.5531
ence	-12.5538
▁gua	-12.5552
▁encarg	-12.5555
itos	-12.5556
ensa	-12.5557
▁includ	-12.5561
fer	-12.5566
▁instant	-12.5606
ank	-12.5607
▁vendid	-12.561
▁remark	-12.5611
▁invadi	-12.5612
desea	-12.5617
▁carreras	-12.562
pensá	-12.5626
▁arriesga	-12.5634
▁confirmar	-12.5635
bul	-12.5637
▁evita	-12.5642
▁atender	-12.5646
▁restos	-12.5663
▁stir	-12.5669
▁apuesta	-12.5671
▁capítulo	-12.5671
▁kitten	-12.5671
▁minifalda	-12.5671
▁aliado	-12.5671
▁pendiente	-12.5671
▁permít	-12.5672
▁crí	-12.5673
▁bacteria	-12.5675
▁candidate	-12.5675
▁maravilla	-12.5675
▁recuperará	-12.5675
▁anuncio	-12.5676
▁liberado	-12.5677
▁graciosa	-12.5678
▁distinto	-12.5678
▁transporte	-12.5678
▁lavarropa	-12.5679
▁clavo	-12.568
▁pariente	-12.5681
▁huella	-12.5683
▁brake	-12.5683
▁mueva	-12.5683
sador	-12.5683
▁estampilla	-12.5684
▁británico	-12.5684
▁crop	-12.5685
▁peanut	-12.5686
▁impress	-12.5687
▁mueble	-12.5688
▁errors	-12.5692
▁arranca	-12.5698
▁panda	-12.57
▁hacé	-12.5702
▁charges	-12.5704
▁ayudan	-12.5708
▁pal	-12.5711
▁exhibi	-12.572
vie	-12.5724
▁aprendi	-12.5728
▁sets	-12.5735
▁marc	-12.5736
▁encontrará	-12.5738
▁irrelevant	-12.5739
▁cojo	-12.5743
▁reí	-12.5749
▁corro	-12.5756
ulated	-12.5764
bló	-12.5766
rang	-12.5766
flexible	-12.5767
ciento	-12.5769
water	-12.5769
successful	-12.5769
podrá	-12.577
había	-12.577
who	-12.5771
saw	-12.5771
▁temía	-12.5773
▁escabull	-12.5773
▁supus	-12.5775
▁combina	-12.5775
▁admiraba	-12.5776
hola	-12.5778
mbled	-12.5779
▁instal	-12.5784
▁rellen	-12.5785
estuviste	-12.5786
sois	-12.5786
hablaste	-12.5789
▁investiga	-12.5794
▁abro	-12.5801
▁involve	-12.5803
▁struggle	-12.5804
▁stress	-12.5805
▁resuelv	-12.5805
▁observa	-12.5807
▁interrumpir	-12.5808
▁compulsiv	-12.5809
▁fascina	-12.5809
▁wink	-12.581
▁cristal	-12.581
▁separar	-12.581
hand	-12.5811
irás	-12.5811
▁afila	-12.5812
▁volcano	-12.5812
▁contribute	-12.5812
▁mona	-12.5812
▁indigna	-12.5813
▁crear	-12.5814
▁necessar	-12.5815
▁chase	-12.5815
▁adecuada	-12.5815
▁valle	-12.5815
▁tomato	-12.5816
cript	-12.5817
▁vestir	-12.5817
▁gasoline	-12.5817
▁futbol	-12.5817
▁previo	-12.5817
▁significant	-12.5818
▁insiste	-12.5818
▁casual	-12.5818
▁calendar	-12.5818
▁opone	-12.5818
▁apuñala	-12.5818
▁descifr	-12.5818
▁drastic	-12.5818
óxido	-12.5818
▁acertijo	-12.5818
▁agriculture	-12.5818
▁alexand	-12.5818
▁ambiente	-12.5818
▁ambition	-12.5818
▁archaeologist	-12.5818
▁arrancó	-12.5818
▁asesinó	-12.5818
▁astronomía	-12.5818
▁attribute	-12.5818
▁banquero	-12.5818
▁bargain	-12.5818
▁batteries	-12.5818
▁belief	-12.5818
▁benefit	-12.5818
▁bulb	-12.5818
▁calefacción	-12.5818
▁calurosa	-12.5818
▁carpenter	-12.5818
▁catálogo	-12.5818
▁cenizas	-12.5818
▁chantaje	-12.5818
▁cirugía	-12.5818
▁comestibles	-12.5818
▁conducción	-12.5818
▁confidencial	-12.5818
▁cradle	-12.5818
▁democracia	-12.5818
▁democracy	-12.5818
▁despierte	-12.5818
▁destruido	-12.5818
▁devorado	-12.5818
▁devuelto	-12.5818
▁dictionaries	-12.5818
▁diligent	-12.5818
▁dishonest	-12.5818
▁divertiste	-12.5818
▁doorknob	-12.5818
▁dutch	-12.5818
▁duties	-12.5818
▁edge	-12.5818
▁efficient	-12.5818
▁elevó	-12.5818
▁embajador	-12.5818
▁encerrado	-12.5818
▁entusiasmo	-12.5818
▁equivoqué	-12.5818
▁errand	-12.5818
▁especie	-12.5818
▁esperándote	-12.5818
▁estrelló	-12.5818
▁exactitud	-12.5818
▁expliqué	-12.5818
▁fabuloso	-12.5818
▁farmacia	-12.5818
▁forbidden	-12.5818
▁fountain	-12.5818
▁fregadero	-12.5818
▁harbor	-12.5818
▁hiciéramos	-12.5818
▁hidrógeno	-12.5818
▁hígado	-12.5818
▁impresionar	-12.5818
▁infarto	-12.5818
▁inhabitants	-12.5818
▁injury	-12.5818
▁instinto	-12.5818
▁intenso	-12.5818
▁intersection	-12.5818
▁intimida	-12.5818
▁inversión	-12.5818
▁irresponsible	-12.5818
▁jarrón	-12.5818
▁jungle	-12.5818
▁lastimé	-12.5818
▁lechuga	-12.5818
▁magician	-12.5818
▁mammal	-12.5818
▁nacido	-12.5818
▁netherlands	-12.5818
▁nocturna	-12.5818
▁ofender	-12.5818
▁padrastro	-12.5818
▁palideció	-12.5818
▁palomitas	-12.5818
▁panadería	-12.5818
▁peculiar	-12.5818
▁peluquero	-12.5818
▁perfección	-12.5818
▁pickpocket	-12.5818
▁portugués	-12.5818
▁positivo	-12.5818
▁precisa	-12.5818
▁promising	-12.5818
▁psiquiatra	-12.5818
▁pulmón	-12.5818
▁quebrado	-12.5818
▁questionnaire	-12.5818
▁rainbow	-12.5818
▁receipt	-12.5818
▁refiero	-12.5818
▁relájate	-12.5818
▁routine	-12.5818
▁rudo	-12.5818
▁satisfacer	-12.5818
▁satélite	-12.5818
▁signature	-12.5818
▁slim	-12.5818
▁slump	-12.5818
▁snoring	-12.5818
▁sorrow	-12.5818
▁souvenir	-12.5818
▁squirrel	-12.5818
▁stadium	-12.5818
▁stranded	-12.5818
▁sunbathing	-12.5818
▁survivor	-12.5818
▁sólida	-12.5818
▁sótano	-12.5818
▁tabla	-12.5818
▁telescope	-12.5818
▁telescopio	-12.5818
▁tournament	-12.5818
▁tripulación	-12.5818
▁troops	-12.5818
▁tropez	-12.5818
▁unattended	-12.5818
▁vacuum	-12.5818
▁valentín	-12.5818
▁veinticinco	-12.5818
▁venecia	-12.5818
▁widow	-12.5818
▁yield	-12.5818
▁accidentalmente	-12.5818
▁contagiosa	-12.5818
▁conversamos	-12.5818
▁lettuce	-12.5818
▁masculine	-12.5818
▁nochebuena	-12.5818
▁picó	-12.5818
▁recoja	-12.5818
▁repite	-12.5818
▁rural	-12.5818
▁sartén	-12.5818
▁scandal	-12.5818
▁simpatía	-12.5818
▁spouse	-12.5818
▁torneo	-12.5818
▁criticism	-12.5818
▁debiera	-12.5818
▁blend	-12.5818
▁afición	-12.5818
▁rebaja	-12.5818
▁roast	-12.5818
▁sequía	-12.5818
▁aéreo	-12.5818
▁proposición	-12.5818
▁silenciosamente	-12.5818
▁cuídate	-12.5818
▁folk	-12.5818
▁foul	-12.5818
▁jewelry	-12.5818
▁quédense	-12.5818
▁separó	-12.5818
▁compasión	-12.5818
▁distraído	-12.5818
▁espinacas	-12.5818
▁rational	-12.5818
▁wreck	-12.5818
▁chofer	-12.5818
▁cooperation	-12.5818
▁quíte	-12.5818
▁specific	-12.5818
▁estrés	-12.5818
▁basis	-12.5818
▁diplomatic	-12.5818
▁doorbell	-12.5818
▁estadio	-12.5818
▁psychiatrist	-12.5818
▁reemplazar	-12.5818
▁disputa	-12.5818
▁dominio	-12.5818
▁rompiste	-12.5818
▁britain	-12.5818
▁emoción	-12.5818
▁salmon	-12.5818
▁pecado	-12.5818
rupción	-12.5818
▁reflection	-12.5818
▁vestía	-12.5818
▁sacudirse	-12.5818
▁calendario	-12.5818
▁mommy	-12.5818
▁sorda	-12.5818
▁dispers	-12.5818
▁cafe	-12.5818
▁calificaciones	-12.5818
▁grueso	-12.5818
▁exceso	-12.5818
▁haciéndolo	-12.5818
▁categoría	-12.5818
▁proverbio	-12.5818
▁meditating	-12.5818
▁torpe	-12.5818
▁reflexionar	-12.5818
▁entendiera	-12.5818
▁dudé	-12.5818
▁factories	-12.5818
▁fiddle	-12.5818
▁identificar	-12.5818
▁pesimista	-12.5818
▁bakery	-12.5818
▁carcajada	-12.5818
▁cartero	-12.5818
▁secure	-12.5818
▁unbearable	-12.5818
▁temblando	-12.5818
▁díganme	-12.5818
▁nationality	-12.5818
▁villagers	-12.5818
▁enseñanza	-12.5818
▁accountant	-12.5819
▁disappointment	-12.5819
▁handbag	-12.5819
▁crane	-12.5819
▁parallel	-12.5819
▁pudiéramos	-12.5819
▁ojeada	-12.5819
▁luckily	-12.5819
▁skeptic	-12.5819
▁gravedad	-12.5819
▁hormigas	-12.5819
▁apresurado	-12.5819
▁defectuoso	-12.5819
▁dentífrico	-12.5819
▁function	-12.5819
▁temperamento	-12.5819
▁aparcado	-12.5819
▁tasty	-12.5819
▁descuido	-12.5819
▁regalado	-12.5819
▁pospondr	-12.5819
▁fatter	-12.5819
▁reflect	-12.5819
▁mostrame	-12.5819
▁pulsera	-12.5819
▁actuación	-12.5819
▁fulfill	-12.5819
▁podrido	-12.5819
▁perdóneme	-12.5819
▁espina	-12.5819
▁realistic	-12.5819
▁mankind	-12.5819
▁pronunciación	-12.5819
▁inspired	-12.5819
▁alpes	-12.5819
▁opuesto	-12.5819
▁destrozado	-12.5819
▁tóme	-12.5819
▁desempleado	-12.5819
▁complacer	-12.5819
▁bailarín	-12.5819
▁fíe	-12.5819
▁existir	-12.5819
▁venice	-12.5819
▁entregué	-12.5819
▁humanity	-12.5819
▁avísame	-12.582
▁visitantes	-12.582
▁arduamente	-12.582
▁regardless	-12.582
▁comic	-12.582
▁alcoholic	-12.582
▁spin	-12.582
▁vanished	-12.582
▁gesto	-12.582
▁airmail	-12.582
▁contaste	-12.582
▁passage	-12.582
▁jardinero	-12.582
▁caminé	-12.582
▁cesta	-12.582
▁cocido	-12.582
▁gris	-12.582
▁deshonesto	-12.5821
▁dimitir	-12.5821
▁maleducado	-12.5821
▁hotter	-12.5821
▁ahogando	-12.5821
▁cockroaches	-12.5821
▁aventón	-12.5821
▁extraordinario	-12.5821
▁salsa	-12.5821
▁shortage	-12.5821
▁termino	-12.5821
▁crecido	-12.5821
▁sociable	-12.5821
▁contratado	-12.5821
▁graduarse	-12.5821
▁minerales	-12.5821
▁centr	-12.5821
▁mataste	-12.5821
▁desayuné	-12.5821
▁alcance	-12.5821
▁vigilando	-12.5821
▁frustrado	-12.5821
▁fist	-12.5821
▁valley	-12.5822
▁desarrollo	-12.5822
▁especialidad	-12.5822
▁escondiste	-12.5822
▁compleja	-12.5822
▁global	-12.5822
▁vestirse	-12.5822
▁innecesario	-12.5822
▁ligeramente	-12.5823
▁educated	-12.5823
▁bañando	-12.5823
▁instantly	-12.5823
▁recovery	-12.5823
▁resfrío	-12.5823
▁entretenido	-12.5823
▁speechless	-12.5823
▁súbe	-12.5823
▁estupendamente	-12.5823
▁recordado	-12.5823
employment	-12.5823
▁chile	-12.5823
▁prepárate	-12.5823
▁obligaron	-12.5824
▁snowman	-12.5824
▁examinar	-12.5824
ple	-12.5824
▁implicado	-12.5824
▁damp	-12.5824
▁evitando	-12.5824
sterna	-12.5824
▁tender	-12.5825
▁misteriosa	-12.5825
▁worthless	-12.5825
▁indefenso	-12.5825
▁traduzca	-12.5825
▁childish	-12.5825
▁sickness	-12.5826
▁retirarse	-12.5826
▁fama	-12.5826
▁barra	-12.5826
▁perdonará	-12.5826
▁untied	-12.5826
▁sailing	-12.5826
▁conquer	-12.5827
▁anticipated	-12.5827
▁manejando	-12.5827
▁dispararon	-12.5827
▁déjelo	-12.5827
▁sucederá	-12.5827
▁tiny	-12.5827
▁interferir	-12.5828
▁repetirlo	-12.5828
▁cl	-12.5828
▁nacionales	-12.5828
▁conocerla	-12.5828
▁ticking	-12.5828
▁commander	-12.5829
▁entraste	-12.5829
▁wax	-12.5829
▁fade	-12.5829
▁decepción	-12.583
▁intentemos	-12.583
▁conveniente	-12.583
▁chopsticks	-12.583
▁estribos	-12.583
▁villancicos	-12.583
▁dímelo	-12.583
▁necesitáis	-12.583
▁agitó	-12.583
▁suelta	-12.583
did	-12.5831
▁trajiste	-12.5831
▁cantemos	-12.5831
▁sentís	-12.5832
▁secuestrado	-12.5832
▁orilla	-12.5832
▁socio	-12.5832
▁spying	-12.5833
010.	-12.5833
▁prestada	-12.5834
▁despedirse	-12.5835
▁liberal	-12.5835
▁dna	-12.5835
▁moriría	-12.5836
▁quemando	-12.5836
▁lejano	-12.5836
▁competed	-12.5836
▁cansando	-12.5836
▁dull	-12.5837
▁arrestada	-12.5837
▁captured	-12.5837
▁ripe	-12.5837
▁apunté	-12.5837
▁triunfará	-12.5838
▁phrase	-12.5838
▁bandage	-12.5838
▁atraviesa	-12.5838
▁esconderse	-12.5838
▁outcome	-12.5839
prendieron	-12.5839
▁alley	-12.5839
▁subimos	-12.5839
▁capacidades	-12.5839
▁apretado	-12.5839
▁barked	-12.5839
▁amigable	-12.584
▁update	-12.5841
▁preparé	-12.5841
▁witnesses	-12.5842
▁reírse	-12.5843
▁rights	-12.5843
▁gardener	-12.5843
▁alps	-12.5844
cakes	-12.5844
▁leíste	-12.5844
▁presentarme	-12.5845
▁envíame	-12.5845
▁sandía	-12.5845
▁reporter	-12.5845
▁envío	-12.5846
▁paseando	-12.5846
▁packing	-12.5847
▁subieron	-12.5847
▁loaded	-12.5847
gave	-12.5847
▁consideraría	-12.5849
▁sello	-12.5849
▁easter	-12.5849
▁amará	-12.5849
▁mariscos	-12.5851
▁refugees	-12.5851
▁siembras	-12.5851
▁apoyes	-12.5851
▁shaving	-12.5852
▁viajero	-12.5854
ncionado	-12.5854
▁fled	-12.5855
▁gal	-12.5855
▁choke	-12.5857
cidimos	-12.5858
▁notó	-12.5858
▁flipp	-12.5858
▁exponer	-12.5858
▁mejorará	-12.5858
▁sección	-12.5858
▁reports	-12.5859
▁cenando	-12.586
▁invenci	-12.5861
▁permitiré	-12.5862
▁pony	-12.5862
▁cured	-12.5863
▁enfrente	-12.5863
wed	-12.5865
▁callada	-12.5867
▁protegerte	-12.5868
▁flexible	-12.587
▁descubrirá	-12.587
▁canceló	-12.5871
▁intentamos	-12.5872
▁indios	-12.5872
▁muelas	-12.5872
▁hamburgers	-12.5872
▁freezes	-12.5872
▁inseguro	-12.5872
▁disturbed	-12.5873
▁llamarle	-12.5874
▁fasten	-12.5875
▁comparta	-12.5875
▁patas	-12.5875
▁italiana	-12.5877
▁increased	-12.5877
▁lamentar	-12.588
▁ironed	-12.5881
▁bate	-12.5882
▁escucharon	-12.5883
▁stores	-12.5884
▁salada	-12.5886
▁cruzado	-12.5886
▁planeamos	-12.5887
▁visitarle	-12.5887
▁conocerlo	-12.5887
▁completar	-12.5887
▁terminarlo	-12.5888
▁helados	-12.5888
▁vini	-12.5889
▁signs	-12.5889
▁boasts	-12.5894
▁stinks	-12.5894
▁owls	-12.5894
▁cucarachas	-12.5894
▁asians	-12.5894
▁cultivos	-12.5894
▁detente	-12.5894
cendió	-12.5895
▁travelers	-12.5897
▁pensaría	-12.5898
▁planchar	-12.5899
▁conducía	-12.5899
▁irrelevante	-12.5899
▁creerlo	-12.5899
▁poorly	-12.59
▁echarme	-12.5901
▁armado	-12.5901
▁toser	-12.5901
▁anchor	-12.5902
vivieron	-12.5903
▁conocerle	-12.5904
▁strongly	-12.5907
▁cebollas	-12.5915
▁colleagues	-12.5915
▁pigeons	-12.5915
▁terrorists	-12.5915
▁payment	-12.5916
▁employed	-12.5916
▁decirnos	-12.5921
▁cambiarme	-12.5923
fit	-12.5927
vendrás	-12.593
tivos	-12.5931
▁arreglo	-12.5931
▁sáca	-12.5932
▁gaze	-12.5932
▁extraordinaria	-12.5933
▁relaje	-12.5935
▁fumes	-12.5935
▁calculat	-12.5935
▁leaks	-12.5937
▁anti	-12.5937
▁scraps	-12.5937
▁mueras	-12.5937
▁flota	-12.5938
▁prefieren	-12.5939
▁cría	-12.5941
▁hum	-12.5942
▁preguntaría	-12.5943
▁bathing	-12.5944
▁extinct	-12.5944
▁delight	-12.5947
▁alrededores	-12.5948
▁rías	-12.5949
▁puño	-12.5949
cula	-12.5952
▁descubra	-12.5953
▁footing	-12.5953
estaría	-12.5954
cera	-12.5957
▁presione	-12.5957
▁haríamos	-12.5958
▁cantes	-12.5959
▁lavarropas	-12.5959
▁dais	-12.5967
▁islas	-12.5974
▁encontrarla	-12.5974
▁formed	-12.5974
▁seller	-12.5974
▁culpado	-12.5975
▁pisos	-12.5975
illos	-12.5976
▁mascotas	-12.598
▁codos	-12.5981
▁docenas	-12.5981
▁christians	-12.5985
▁reales	-12.5989
▁modernos	-12.5991
▁abiertas	-12.5992
▁creerá	-12.5994
▁abejas	-12.6002
▁spie	-12.6004
▁argumento	-12.6007
▁dolores	-12.6007
▁surf	-12.6008
▁peaceful	-12.6009
ack	-12.601
▁noel	-12.6011
▁salgan	-12.6012
▁plantar	-12.602
▁disfrutan	-12.6022
▁temen	-12.6031
▁cámaras	-12.6031
sant	-12.6032
▁comenzará	-12.6032
▁enterrar	-12.6035
▁ping	-12.6043
▁relojes	-12.6045
▁slices	-12.6046
▁kites	-12.6046
alizado	-12.605
▁union	-12.6055
▁exceptions	-12.6057
xed	-12.6061
▁hablaban	-12.6064
▁importado	-12.6065
▁mejoró	-12.6066
▁estimate	-12.6068
▁ingresar	-12.6074
▁atacar	-12.6074
▁decida	-12.6083
▁violenta	-12.6084
▁smoked	-12.6085
▁últimas	-12.6089
▁ordena	-12.6089
▁límites	-12.609
▁boils	-12.609
▁proven	-12.6091
▁debían	-12.6092
▁economics	-12.6092
▁tierras	-12.6097
▁ayudarlos	-12.6101
ana	-12.6101
▁compensar	-12.6105
▁secos	-12.6109
▁suspendi	-12.6111
▁characters	-12.6112
▁preguntaste	-12.6112
coming	-12.6122
▁expres	-12.6125
▁consumi	-12.6129
▁cortés	-12.6131
▁adivine	-12.6138
▁aceptara	-12.6138
▁armar	-12.614
▁pila	-12.6142
▁ch	-12.6144
▁acompañar	-12.6145
right	-12.6152
ridad	-12.6153
▁pesadillas	-12.6156
▁amables	-12.6158
▁acostumbra	-12.6158
▁cometas	-12.6161
▁favorable	-12.6162
▁cantan	-12.6166
▁ants	-12.6168
▁compraré	-12.6174
vida	-12.6174
▁za	-12.6192
▁dejaba	-12.6193
▁misa	-12.6195
urged	-12.6196
▁divorciar	-12.6197
▁desp	-12.6198
▁guardias	-12.62
▁oscuras	-12.6203
▁eater	-12.6208
▁quedate	-12.621
▁amado	-12.6216
▁imitar	-12.6219
▁pidas	-12.6219
▁machines	-12.6224
▁librar	-12.6233
af	-12.6236
▁hatch	-12.6236
▁demandas	-12.6237
▁decepcione	-12.6239
▁envi	-12.6244
▁photographs	-12.6244
bieron	-12.6245
sitting	-12.6248
▁percat	-12.6253
▁diseñ	-12.6259
mamente	-12.6262
▁regreses	-12.6265
▁extrañas	-12.6265
▁cosechas	-12.6267
▁matará	-12.6267
▁falt	-12.6277
▁intent	-12.6281
▁obligar	-12.6285
▁testigos	-12.6289
▁veían	-12.6294
▁tardar	-12.631
▁francesas	-12.6314
▁expertos	-12.632
▁comerse	-12.6322
▁fr	-12.6325
▁medidas	-12.6334
▁flo	-12.6334
▁aguard	-12.6335
▁manifestan	-12.6337
▁pato	-12.6349
▁recorte	-12.6351
▁questioned	-12.6353
▁morirá	-12.6353
▁apariencias	-12.6356
▁impacientes	-12.6356
▁ro	-12.636
▁mencionar	-12.6375
▁maravillosas	-12.6375
▁causas	-12.6377
▁fund	-12.6388
▁recibier	-12.6389
▁confies	-12.6408
▁tests	-12.6409
▁experts	-12.6422
▁lindos	-12.6425
▁ji	-12.6436
▁desayunas	-12.6451
▁vivirá	-12.6456
▁hicieran	-12.6457
hei	-12.6462
▁sopla	-12.6469
▁cam	-12.6478
▁veranos	-12.6479
tomas	-12.6483
▁decor	-12.6484
▁permití	-12.6486
▁sujeta	-12.6487
▁thoughts	-12.6492
nzaron	-12.6496
uta	-12.6496
▁tear	-12.6506
hu	-12.6511
tales	-12.6513
▁bajos	-12.6515
imiento	-12.6525
▁shoulders	-12.6527
▁pisa	-12.6531
▁quedaras	-12.6533
leading	-12.6538
▁host	-12.6547
table	-12.6554
avo	-12.6558
▁motivos	-12.656
▁vendrán	-12.6569
▁chu	-12.6592
▁quitas	-12.6601
aped	-12.6602
▁artículos	-12.6606
▁dormitorios	-12.6606
▁llenar	-12.6619
tained	-12.6626
▁encantar	-12.663
irte	-12.6632
▁choices	-12.6634
▁dies	-12.6644
▁computadoras	-12.6646
▁presenta	-12.6648
▁costumbres	-12.6652
jera	-12.6655
▁ganara	-12.6656
▁arriesgar	-12.6657
▁founded	-12.6664
uf	-12.667
▁pagas	-12.6671
worthy	-12.6676
lder	-12.6681
▁miran	-12.6686
▁invade	-12.669
▁corresponde	-12.6694
▁comerla	-12.6695
▁tag	-12.6698
▁peleas	-12.6708
▁consola	-12.6709
cubre	-12.6709
▁nu	-12.6711
▁mejora	-12.6715
▁enamorar	-12.6716
▁seasons	-12.6721
cito	-12.6729
▁renta	-12.6736
▁alza	-12.6743
▁fábricas	-12.6744
▁aconseja	-12.6746
▁lana	-12.6747
riendo	-12.6767
▁hats	-12.678
▁écha	-12.6801
▁corri	-12.6803
▁limita	-12.6805
▁preste	-12.6812
▁bord	-12.6815
▁award	-12.6821
▁descanse	-12.6822
▁restaurants	-12.6829
▁gustos	-12.6837
aremos	-12.6839
▁remo	-12.6841
▁indicate	-12.6862
ésemos	-12.6863
cena	-12.688
gle	-12.6883
▁modos	-12.6887
▁cerra	-12.6888
▁kn	-12.6889
▁provoca	-12.689
mina	-12.6918
ori	-12.6923
▁exercises	-12.6927
▁mari	-12.6933
▁emp	-12.6941
▁cantara	-12.6947
▁speakers	-12.6951
día	-12.6956
érgico	-12.6968
▁raras	-12.6978
▁mile	-12.6996
▁recost	-12.6997
▁trans	-12.6998
▁mondays	-12.7009
▁burla	-12.7014
ili	-12.7018
▁bells	-12.7018
▁rings	-12.7022
▁chin	-12.7022
iar	-12.7022
▁reun	-12.7037
▁enterar	-12.7046
▁cuestion	-12.7056
▁propus	-12.7075
ario	-12.7077
▁golpea	-12.7082
▁entendi	-12.709
ivo	-12.7091
▁captura	-12.7096
cción	-12.711
▁fij	-12.7113
▁gi	-12.7125
gué	-12.7128
▁mantene	-12.7133
ap	-12.7138
▁recuper	-12.7139
▁reza	-12.7143
▁leap	-12.7145
▁swa	-12.7146
▁envejec	-12.7146
▁regal	-12.7148
tiva	-12.7154
volverá	-12.7155
puso	-12.7157
brieron	-12.7164
▁chatte	-12.7171
▁choca	-12.7171
tiles	-12.7192
▁pelotas	-12.7196
▁pónga	-12.7203
▁lesion	-12.7208
▁escal	-12.7214
▁retrasa	-12.7219
▁portar	-12.7221
▁lees	-12.7225
ssured	-12.7228
▁pospus	-12.7228
acción	-12.7233
ddling	-12.724
▁pose	-12.725
nero	-12.7252
jó	-12.7254
▁odias	-12.7258
▁elegi	-12.7264
ebra	-12.7278
pón	-12.728
ona	-12.7281
▁pun	-12.7285
light	-12.7293
dir	-12.7303
▁volverás	-12.7304
▁pein	-12.7306
▁felicitar	-12.7309
▁tratas	-12.731
▁serie	-12.7321
▁telefone	-12.7328
▁instrument	-12.7329
▁consulte	-12.733
▁films	-12.7336
▁fruits	-12.7337
▁comience	-12.7338
▁esclavo	-12.7343
▁expire	-12.7343
▁channel	-12.7344
▁órgano	-12.7344
▁voto	-12.7344
▁lung	-12.7345
▁brace	-12.7345
▁muera	-12.7348
▁hueso	-12.735
▁instrumento	-12.7351
▁aparc	-12.7351
▁wave	-12.7351
▁herramienta	-12.7352
▁lip	-12.7352
▁option	-12.7353
▁pulga	-12.7353
▁impuesto	-12.7354
▁galleta	-12.7354
▁guest	-12.7355
▁bone	-12.7359
▁european	-12.7359
▁acud	-12.736
▁bombero	-12.7361
irme	-12.7365
▁vegetariano	-12.7365
▁ahorr	-12.7369
▁agit	-12.7371
▁freno	-12.7374
▁scrap	-12.7375
▁continu	-12.7381
▁fume	-12.7385
▁rescat	-12.7388
▁incompetent	-12.7392
▁conform	-12.7392
▁milla	-12.7393
▁sigh	-12.7396
▁despreci	-12.7405
▁sentimiento	-12.7407
▁resfri	-12.7408
▁natives	-12.7411
▁leak	-12.7412
▁añadi	-12.7415
sible	-12.7417
▁urban	-12.7417
▁mezcl	-12.7419
▁bars	-12.7423
▁relaja	-12.7423
▁eleva	-12.7425
▁tolerar	-12.7425
fashioned	-12.7427
▁aparecer	-12.7427
▁pensá	-12.7429
▁tribu	-12.743
room	-12.7431
¡	-12.7433
conocés	-12.7434
▁cobrar	-12.7434
down	-12.7436
ayuda	-12.7436
capable	-12.7436
viniste	-12.7436
américa	-12.7436
minute	-12.7437
vosotros	-12.7437
judge	-12.7437
box	-12.7437
hiciste	-12.7437
ojal	-12.7437
great	-12.7437
together	-12.7437
sentimiento	-12.7437
▁conflict	-12.7439
comer	-12.744
▁sueña	-12.744
▁vuela	-12.7443
▁froze	-12.7444
hold	-12.7447
▁describir	-12.7447
her	-12.7448
ley	-12.7449
▁arrogant	-12.7452
▁envía	-12.7453
▁persuadi	-12.7454
▁consent	-12.7456
struyó	-12.7458
▁déja	-12.7459
▁bolsas	-12.746
torio	-12.746
▁frighten	-12.7461
▁approach	-12.7462
solo	-12.7465
▁fallo	-12.7465
▁wi	-12.7468
away	-12.7469
▁release	-12.7469
▁cuénta	-12.747
▁disguise	-12.747
▁amuse	-12.747
▁fiel	-12.7472
▁revise	-12.7472
▁relie	-12.7472
▁scold	-12.7473
▁guárda	-12.7474
juegas	-12.7474
▁desconocid	-12.7474
▁sail	-12.7474
▁appeti	-12.7475
▁espacial	-12.7476
▁occidental	-12.7477
▁traductor	-12.7477
▁mantel	-12.7477
▁actividad	-12.7478
anda	-12.7478
▁obsolet	-12.7479
▁ronca	-12.7479
▁inund	-12.7479
▁attentive	-12.748
▁escoge	-12.748
▁proper	-12.7481
▁pregúnta	-12.7481
▁guilt	-12.7481
▁murmur	-12.7481
▁imprudente	-12.7481
▁quinient	-12.7483
▁enséñ	-12.7483
▁identi	-12.7483
ollywood	-12.7483
▁scienti	-12.7483
▁interroga	-12.7484
▁aboli	-12.7484
icycle	-12.7484
▁ingenio	-12.7484
▁territor	-12.7484
▁mug	-12.7485
▁incorr	-12.7485
▁backward	-12.7485
▁cepíll	-12.7485
▁escéptic	-12.7485
▁otorg	-12.7485
▁plagi	-12.7485
▁romántica	-12.7485
▁tahit	-12.7485
oportuno	-12.7485
zhou	-12.7485
ófono	-12.7485
▁acantilado	-12.7485
▁acarici	-12.7485
▁acepté	-12.7485
▁ambición	-12.7485
▁amplia	-12.7485
▁approval	-12.7485
▁aprendizaje	-12.7485
▁astronomy	-12.7485
▁babysitter	-12.7485
▁background	-12.7485
▁birome	-12.7485
▁blackmailed	-12.7485
▁básica	-12.7485
▁cachorrito	-12.7485
▁caigo	-12.7485
▁callejón	-12.7485
▁campesino	-12.7485
▁campeón	-12.7485
▁carpintero	-12.7485
▁carretilla	-12.7485
▁catástrofe	-12.7485
▁cayera	-12.7485
▁celsius	-12.7485
▁centímetros	-12.7485
▁certeza	-12.7485
▁chicle	-12.7485
▁circo	-12.7485
▁cocodrilo	-12.7485
▁comandante	-12.7485
▁compromise	-12.7485
▁comunican	-12.7485
▁comunidad	-12.7485
▁conclude	-12.7485
▁conexión	-12.7485
▁consecutiv	-12.7485
▁construí	-12.7485
▁cricket	-12.7485
▁crocodile	-12.7485
▁cuenco	-12.7485
▁cuervo	-12.7485
▁cuñado	-12.7485
▁cólera	-12.7485
▁dañó	-12.7485
▁deceased	-12.7485
▁decírtelo	-12.7485
▁derribó	-12.7485
▁desacuerdo	-12.7485
▁descompuesto	-12.7485
▁desilusionado	-12.7485
▁despidió	-12.7485
▁destruir	-12.7485
▁detroit	-12.7485
▁diabetic	-12.7485
▁disorder	-12.7485
▁distraiga	-12.7485
▁divierte	-12.7485
▁divulg	-12.7485
▁dreadful	-12.7485
▁dripping	-12.7485
▁duplicado	-12.7485
▁ebriedad	-12.7485
▁eclipse	-12.7485
▁eficaz	-12.7485
▁eficiente	-12.7485
▁eiffel	-12.7485
▁elogió	-12.7485
▁embrujada	-12.7485
▁encantó	-12.7485
▁enthusiasm	-12.7485
▁escúchame	-12.7485
▁estrecho	-12.7485
▁estresante	-12.7485
▁estupideces	-12.7485
▁evacuate	-12.7485
▁eventualmente	-12.7485
▁expedition	-12.7485
▁eyebrows	-12.7485
▁ferrocarril	-12.7485
▁financieros	-12.7485
▁fingerprints	-12.7485
▁flavor	-12.7485
▁giraffe	-12.7485
▁gramática	-12.7485
▁gratuita	-12.7485
▁greedy	-12.7485
▁gunshot	-12.7485
▁hakone	-12.7485
▁happily	-12.7485
▁helsinki	-12.7485
▁hesitation	-12.7485
▁hiciese	-12.7485
▁himalaya	-12.7485
▁honshu	-12.7485
▁hyogo	-12.7485
▁immature	-12.7485
▁immigrants	-12.7485
▁impolite	-12.7485
▁inaceptable	-12.7485
▁ingleses	-12.7485
▁inmaduro	-12.7485
▁inmigrantes	-12.7485
▁insensible	-12.7485
▁intrigued	-12.7485
▁invasores	-12.7485
▁janeiro	-12.7485
▁jirafa	-12.7485
▁jodiendo	-12.7485
▁jubiló	-12.7485
▁karaoke	-12.7485
▁kennedy	-12.7485
▁knives	-12.7485
▁lemonade	-12.7485
▁liquid	-12.7485
▁llanto	-12.7485
▁masterpiece	-12.7485
▁medication	-12.7485
▁mendigo	-12.7485
▁mercurio	-12.7485
▁mercury	-12.7485
▁mermelada	-12.7485
▁microscope	-12.7485
▁montgomery	-12.7485
▁muerda	-12.7485
▁murciélago	-12.7485
▁mysteries	-12.7485
▁neblina	-12.7485
▁neutral	-12.7485
▁nitrógeno	-12.7485
▁niñera	-12.7485
▁ofendido	-12.7485
▁olfato	-12.7485
▁ordeña	-12.7485
▁orientación	-12.7485
▁pascua	-12.7485
▁patinaje	-12.7485
▁peasant	-12.7485
▁peluca	-12.7485
▁permanezca	-12.7485
▁perspectiva	-12.7485
▁picadura	-12.7485
▁pioneer	-12.7485
▁plague	-12.7485
▁plumber	-12.7485
▁poesía	-12.7485
▁polonia	-12.7485
▁potential	-12.7485
▁privacidad	-12.7485
▁proceed	-12.7485
▁profile	-12.7485
▁protección	-12.7485
▁quisquilloso	-12.7485
▁racial	-12.7485
[...]
